{"version":"1.0","truncation":null,"padding":null,"added_tokens":[{"id":0,"special":true,"content":"<a>","single_word":false,"lstrip":false,"rstrip":false,"normalized":false},{"id":1,"special":true,"content":"<b>","single_word":false,"lstrip":false,"rstrip":false,"normalized":false},{"id":2,"special":true,"content":"<c>","single_word":false,"lstrip":false,"rstrip":false,"normalized":false},{"id":3,"special":true,"content":"<d>","single_word":false,"lstrip":false,"rstrip":false,"normalized":false},{"id":4,"special":true,"content":"<e>","single_word":false,"lstrip":false,"rstrip":false,"normalized":false},{"id":5,"special":true,"content":"<f>","single_word":false,"lstrip":false,"rstrip":false,"normalized":false},{"id":6,"special":true,"content":"<g>","single_word":false,"lstrip":false,"rstrip":false,"normalized":false},{"id":7,"special":true,"content":"<h>","single_word":false,"lstrip":false,"rstrip":false,"normalized":false},{"id":8,"special":true,"content":"[UNK]","single_word":false,"lstrip":false,"rstrip":false,"normalized":false},{"id":9,"special":true,"content":"[PAD]","single_word":false,"lstrip":false,"rstrip":false,"normalized":false}],"normalizer":null,"pre_tokenizer":{"type":"Whitespace"},"post_processor":null,"decoder":null,"model":{"type":"WordPiece","unk_token":"[UNK]","continuing_subword_prefix":"##","max_input_chars_per_word":100,"vocab":{"<a>":0,"<b>":1,"<c>":2,"<d>":3,"<e>":4,"<f>":5,"<g>":6,"<h>":7,"[UNK]":8,"[PAD]":9,"!":10,"\"":11,"'":12,",":13,"-":14,".":15,"0":16,"2":17,"3":18,"4":19,"5":20,"6":21,"7":22,"8":23,"=":24,"?":25,"A":26,"B":27,"C":28,"D":29,"E":30,"F":31,"G":32,"H":33,"I":34,"J":35,"K":36,"L":37,"M":38,"N":39,"O":40,"P":41,"Q":42,"R":43,"S":44,"T":45,"U":46,"V":47,"W":48,"X":49,"Y":50,"Z":51,"a":52,"b":53,"c":54,"d":55,"e":56,"f":57,"g":58,"h":59,"i":60,"j":61,"k":62,"l":63,"m":64,"n":65,"o":66,"p":67,"q":68,"r":69,"s":70,"t":71,"u":72,"v":73,"w":74,"x":75,"y":76,"z":77,"##o":78,"##n":79,"##a":80,"##s":81,"##t":82,"##e":83,"##r":84,"##i":85,"##u":86,"##l":87,"##k":88,"##d":89,"##c":90,"##h":91,"##g":92,"##p":93,"##w":94,"##m":95,"##O":96,"##U":97,"##B":98,"##T":99,"##S":100,"##b":101,"##y":102,"##z":103,"##x":104,"##M":105,"##E":106,"##C":107,"##I":108,"##N":109,"##G":110,"##v":111,"##f":112,"##H":113,"##R":114,"##L":115,"##A":116,"##W":117,"##D":118,"##q":119,"##j":120,"##X":121,"##K":122,"##\"":123,"##P":124,"##Y":125,"##V":126,"##,":127,"##J":128,"##?":129,"##F":130,"##3":131,"##Q":132,"##Z":133,"##.":134,"##'":135,"##-":136,"##5":137,"##6":138,"th":139,"the":140,"##ou":141,"##nd":142,"##in":143,"##at":144,"##er":145,"and":146,"you":147,"##ea":148,"to":149,"##ing":150,"##re":151,"##ll":152,"that":153,"it":154,"uh":155,"##ow":156,"##en":157,"##es":158,"of":159,"we":160,"ha":161,"##or":162,"in":163,"##ve":164,"##on":165,"##st":166,"##gh":167,"wh":168,"##om":169,"##ut":170,"##ot":171,"yea":172,"##ed":173,"##it":174,"wa":175,"do":176,"kn":177,"be":178,"know":179,"they":180,"##ght":181,"yeah":182,"##ay":183,"##et":184,"##an":185,"on":186,"##ight":187,"##se":188,"##ar":189,"##le":190,"hu":191,"go":192,"##ke":193,"was":194,"have":195,"##ld":196,"huh":197,"so":198,"##id":199,"##ic":200,"li":201,"but":202,"right":203,"is":204,"##ust":205,"st":206,"##is":207,"##ent":208,"##lly":209,"##ch":210,"##ere":211,"just":212,"##ly":213,"well":214,"for":215,"there":216,"like":217,"##ver":218,"rea":219,"an":220,"##ould":221,"se":222,"##al":223,"##ome":224,"##ink":225,"##im":226,"think":227,"what":228,"ab":229,"oh":230,"##th":231,"or":232,"he":233,"##ur":234,"##ith":235,"##ac":236,"not":237,"##out":238,"sh":239,"##od":240,"##ion":241,"er":242,"##op":243,"with":244,"my":245,"##ir":246,"##nt":247,"get":248,"about":249,"at":250,"are":251,"ca":252,"really":253,"##ro":254,"if":255,"re":256,".\"":257,"one":258,"all":259,"up":260,"then":261,"had":262,"##au":263,"see":264,"mo":265,"as":266,"ne":267,"no":268,"them":269,"um":270,"thing":271,"would":272,"got":273,"##ct":274,"some":275,"##ra":276,"bec":277,"out":278,"##ter":279,"##ind":280,"fr":281,"when":282,"becau":283,"because":284,"##oo":285,"this":286,"wor":287,"any":288,"##ge":289,"were":290,"ch":291,"al":292,"did":293,"ma":294,"##ess":295,"now":296,"su":297,"going":298,"can":299,"##kay":300,"##as":301,"##ce":302,"okay":303,"##ally":304,"##ean":305,"##am":306,"##ill":307,"pe":308,"tim":309,"##ff":310,"lot":311,"##one":312,"##il":313,"pro":314,"##est":315,"tr":316,"##ople":317,"people":318,"mean":319,"from":320,"tw":321,"##art":322,"us":323,"##her":324,"your":325,"me":326,"ever":327,"##own":328,"good":329,"##ound":330,"work":331,"time":332,"ta":333,"##ort":334,"##hing":335,"mu":336,"##ers":337,"som":338,"somet":339,"kind":340,"year":341,"down":342,"##ive":343,"##ain":344,"com":345,"##ine":346,"she":347,"##ab":348,"##un":349,"##ery":350,"yes":351,"##pp":352,"too":353,"ex":354,"pl":355,"di":356,"where":357,"##ty":358,"##way":359,"##ation":360,"##our":361,"how":362,"##ack":363,"##ough":364,"##pe":365,"##and":366,"things":367,"been":368,"more":369,"every":370,"gu":371,"##ee":372,"##ven":373,"##ate":374,"sa":375,"##ree":376,"say":377,"very":378,"prob":379,"##ast":380,"want":381,"##ig":382,"##ef":383,"##itt":384,"##ear":385,"##ul":386,"two":387,"##ol":388,"##ad":389,"something":390,"##ri":391,"##ook":392,"##ose":393,"could":394,"much":395,"erm":396,"##ong":397,"who":398,"ar":399,"co":400,"##ther":401,"##ice":402,"##ide":403,"here":404,"##ard":405,"##ie":406,"pre":407,"ag":408,"##ment":409,"bu":410,"##thing":411,"##all":412,"our":413,"##ite":414,"by":415,"their":416,"way":417,"back":418,"other":419,"qu":420,"##ck":421,"con":422,"##ss":423,"##ore":424,"##ittle":425,"little":426,"##ually":427,"##nder":428,"cl":429,"en":430,"ve":431,"##ies":432,"guess":433,"de":434,"##lf":435,"##me":436,"##mb":437,"##ich":438,"##red":439,"used":440,"##ool":441,"##king":442,"##mp":443,"man":444,"over":445,"day":446,"int":447,"off":448,"##if":449,"##act":450,"start":451,"years":452,"##ame":453,"##other":454,"##ous":455,"sch":456,"##ci":457,"than":458,"mm":459,"##ms":460,"##ry":461,"act":462,"has":463,"te":464,"po":465,"pa":466,"come":467,"even":468,"##ably":469,"put":470,"sort":471,"stu":472,"those":473,"may":474,"cou":475,"does":476,"lef":477,"into":478,"##hm":479,"left":480,"##ild":481,"take":482,"--":483,"which":484,"##oy":485,"real":486,"##ody":487,"said":488,"look":489,"school":490,"probably":491,"diff":492,"went":493,"three":494,"##ue":495,"##ving":496,"car":497,"##ting":498,"##ought":499,"##ity":500,"##body":501,"sure":502,"##ead":503,"si":504,"##een":505,"wat":506,"##ant":507,"lo":508,"comp":509,"br":510,"wee":511,"home":512,"big":513,"old":514,"bet":515,"##ish":516,"pret":517,"tal":518,"under":519,"pretty":520,"need":521,"##be":522,"these":523,"make":524,"try":525,"##ways":526,"never":527,"part":528,"##ick":529,"only":530,"pr":531,"sp":532,"kid":533,"hand":534,"differ":535,"##per":536,"actually":537,"new":538,"gre":539,"her":540,"always":541,"bit":542,"##ew":543,"call":544,"inter":545,"##ob":546,"thr":547,"will":548,"anything":549,"should":550,"##wn":551,"him":552,"doing":553,"##eel":554,"##os":555,"am":556,"bot":557,"##ved":558,"child":559,"##el":560,"##mber":561,"##ag":562,"ro":563,"side":564,"maybe":565,"af":566,"stuff":567,"##age":568,"still":569,"far":570,"fir":571,"most":572,"##ert":573,"five":574,"pay":575,"kids":576,"long":577,"##int":578,"##ure":579,"un":580,"##eep":581,"don":582,"##oney":583,"feel":584,"##ace":585,"six":586,"##sh":587,"hi":588,"his":589,"four":590,"same":591,"##eal":592,"bel":593,"around":594,"money":595,"different":596,"first":597,"##ouse":598,"proble":599,"la":600,"nice":601,"wo":602,"##ren":603,"chan":604,"after":605,"##ily":606,"again":607,"through":608,"dr":609,"##ning":610,"##ath":611,"ac":612,"##de":613,"keep":614,"interest":615,"##ence":616,"per":617,"quite":618,"##ect":619,"##fore":620,"read":621,"hear":622,"let":623,"thought":624,"great":625,"##ble":626,"many":627,"before":628,"top":629,"##ards":630,"happ":631,"gra":632,"round":633,"getting":634,"fo":635,"week":636,"cr":637,"everything":638,"cour":639,"fam":640,"gr":641,"care":642,"last":643,"rec":644,"mon":645,"house":646,"done":647,"watch":648,"##iz":649,"har":650,"##ile":651,"use":652,"##ves":653,"##enty":654,"supp":655,"##so":656,"##pt":657,"##ever":658,"##ple":659,"##ist":660,"##ass":661,"eight":662,"##LE":663,"##ather":664,"##ip":665,"##mer":666,"##urn":667,"##us":668,"play":669,"another":670,"##ng":671,"spe":672,"ad":673,"tea":674,"being":675,"##self":676,"count":677,"##ary":678,"job":679,"##kes":680,"tra":681,"##get":682,"also":683,"pers":684,"children":685,"##ful":686,"came":687,"half":688,"course":689,"hard":690,"cent":691,"lea":692,"true":693,"find":694,"el":695,"happen":696,"tell":697,"##MB":698,"MU":699,"own":700,"inch":701,"high":702,"##eas":703,"sl":704,"##ount":705,"stra":706,"fun":707,"away":708,"pu":709,"##ertain":710,"whole":711,"##LEx":712,"##MBLEx":713,"MUMBLEx":714,"##ove":715,"bl":716,"end":717,"person":718,"##imes":719,"fact":720,"##rent":721,"##em":722,"##ked":723,"##vel":724,"line":725,"bott":726,"\"\"":727,"##ire":728,"why":729,"enj":730,"point":731,"enjoy":732,"##ap":733,"##ical":734,"better":735,"ll":736,"##ated":737,"bye":738,"problem":739,"sm":740,"month":741,"ty":742,"bad":743,"coll":744,"though":745,"##ance":746,"family":747,"along":748,"reme":749,"fa":750,"straight":751,"##ex":752,"cur":753,"above":754,"ten":755,"remember":756,"certain":757,"##ye":758,"fl":759,"talking":760,"##ond":761,"##ne":762,"fin":763,"hel":764,"else":765,"bas":766,"##able":767,"place":768,"##ions":769,"sc":770,"##qu":771,"##ach":772,"help":773,"twenty":774,"##day":775,"mmhm":776,"mmhmm":777,"##sb":778,"run":779,"mar":780,"bo":781,"thir":782,"sometimes":783,"cont":784,"turn":785,"##ically":786,"started":787,"trying":788,"bottom":789,"sit":790,"unt":791,"live":792,"dis":793,"seems":794,"res":795,"le":796,"##ndred":797,"made":798,"news":799,"hundred":800,"ser":801,"give":802,"until":803,"##icul":804,"##ither":805,"##um":806,"interesting":807,"##ug":808,"couple":809,"min":810,"fif":811,"##ost":812,"##ope":813,"whatever":814,"##fe":815,"ed":816,"days":817,"enough":818,"##ans":819,"wonder":820,"##ors":821,"##ious":822,"ago":823,"app":824,"having":825,"area":826,"night":827,"seen":828,"##ross":829,"buy":830,"aye":831,"wr":832,"##ons":833,"str":834,"either":835,"anyway":836,"few":837,"might":838,"##ress":839,"husb":840,"##ten":841,"working":842,"husband":843,"sy":844,"ter":845,"##ia":846,"##gra":847,"imp":848,"##are":849,"##les":850,"while":851,"##ute":852,"##wh":853,"war":854,"##ord":855,"cat":856,"##wards":857,"##ars":858,"somebody":859,"bus":860,"ah":861,"##nds":862,"##orm":863,"dec":864,"id":865,"##xt":866,"water":867,"stay":868,"wom":869,"##ock":870,"usually":871,"?\"":872,"coming":873,"##orn":874,"Tex":875,"inc":876,"teach":877,"##ens":878,"doll":879,"once":880,"mov":881,"young":882,"##ep":883,"frie":884,"##ied":885,"exact":886,"times":887,"##ks":888,"took":889,"everybody":890,"##ict":891,"country":892,"inv":893,"able":894,"##uc":895,"heard":896,"type":897,"##iv":898,"eas":899,"show":900,"mat":901,"##cial":902,"##bl":903,"syst":904,"next":905,"ehm":906,"colle":907,"comm":908,"mine":909,"tax":910,"##res":911,"hour":912,"eh":913,"sound":914,"called":915,"exactly":916,"below":917,"dra":918,"guy":919,"##inet":920,"life":921,"##pect":922,"Texas":923,"ins":924,"##iss":925,"goes":926,"##rect":927,"betw":928,"##ations":929,"past":930,"between":931,"compan":932,"##osed":933,"sin":934,"##imet":935,"ph":936,"ele":937,"ninet":938,"small":939,"college":940,"##teen":941,"rel":942,"book":943,"##most":944,"exp":945,"wanted":946,"didn":947,"##ial":948,"seem":949,"centimet":950,"ones":951,"ind":952,"since":953,"nu":954,"##outh":955,"def":956,"talk":957,"##ime":958,"lake":959,"sec":960,"almost":961,"underne":962,"##ory":963,"stop":964,"underneath":965,"both":966,"Ch":967,"gone":968,"pick":969,"ra":970,"page":971,"##ian":972,"##ener":973,"##cess":974,"cons":975,"##uck":976,"less":977,"underst":978,"mother":979,"system":980,"##ts":981,"belie":982,"lear":983,"someone":984,"-.":985,"idea":986,"##ating":987,"mhm":988,"chang":989,"parent":990,"dollars":991,"fu":992,"##ned":993,"whet":994,"boy":995,"whether":996,"spend":997,"##where":998,"rep":999,"Dall":1000,"Dallas":1001,"inst":1002,"att":1003,"##ings":1004,"deal":1005,"set":1006,"list":1007,"looking":1008,"##orth":1009,"sw":1010,"reas":1011,"drug":1012,"understand":1013,"yet":1014,"##ise":1015,"pol":1016,"saw":1017,"##ual":1018,"ext":1019,"class":1020,"gener":1021,"fe":1022,"believe":1023,"mil":1024,"##uring":1025,"gi":1026,"love":1027,"##ud":1028,"agree":1029,"##land":1030,"##ny":1031,"##ates":1032,"thirty":1033,"conc":1034,"##ph":1035,"##ife":1036,"progra":1037,"least":1038,"mus":1039,"paper":1040,"im":1041,"mid":1042,"##gether":1043,"##az":1044,"##ried":1045,"seven":1046,"che":1047,"sub":1048,"##cially":1049,"ba":1050,"##yc":1051,"##aught":1052,"women":1053,"test":1054,"saying":1055,"level":1056,"##uct":1057,"##ces":1058,"inches":1059,"men":1060,"direct":1061,"##man":1062,"##vent":1063,"##ense":1064,"worked":1065,"mor":1066,"towards":1067,"##ont":1068,"ho":1069,"wal":1070,"nothing":1071,"##ately":1072,"camp":1073,"ear":1074,"op":1075,"##dle":1076,"##ib":1077,"##its":1078,"such":1079,"##ang":1080,"es":1081,"##ition":1082,"##aces":1083,"stud":1084,"together":1085,"##ments":1086,"##ines":1087,"room":1088,"across":1089,"sounds":1090,"par":1091,"tre":1092,"##iver":1093,"law":1094,"months":1095,"number":1096,"cut":1097,"during":1098,"##use":1099,"gets":1100,"east":1101,"##cept":1102,"says":1103,"best":1104,"##ets":1105,"head":1106,"##ics":1107,"wife":1108,"##ible":1109,"each":1110,"reg":1111,"rest":1112,"##ken":1113,"##ote":1114,"acc":1115,"supposed":1116,"##ling":1117,"curve":1118,"state":1119,"##io":1120,"finish":1121,"##ountain":1122,"parents":1123,"reason":1124,"certainly":1125,"south":1126,"##ities":1127,"change":1128,"aw":1129,"move":1130,"espe":1131,"name":1132,"dog":1133,"##.\"":1134,"##ousand":1135,"sk":1136,"rock":1137,"especially":1138,"bar":1139,"matter":1140,"thousand":1141,"##llow":1142,"music":1143,"##lex":1144,"bought":1145,"found":1146,"mountain":1147,"fair":1148,"##eak":1149,"##ower":1150,"comes":1151,"basically":1152,"company":1153,"##vern":1154,"morning":1155,"##ents":1156,"myself":1157,"problems":1158,"educ":1159,"must":1160,"##ood":1161,"##side":1162,"nine":1163,"##ision":1164,"##ub":1165,"situ":1166,"stand":1167,"makes":1168,"##blic":1169,"##cent":1170,"##arge":1171,"places":1172,"wonderful":1173,"##urs":1174,"##iness":1175,"##ject":1176,"exper":1177,"wait":1178,"lived":1179,"alr":1180,"centimetres":1181,"defin":1182,"govern":1183,"wow":1184,"today":1185,"eng":1186,"plan":1187,"ob":1188,"town":1189,"sal":1190,"##ness":1191,"shop":1192,"near":1193,"##ury":1194,"cost":1195,"movie":1196,"miss":1197,"making":1198,"ben":1199,"gl":1200,"sum":1201,"##ball":1202,"pri":1203,"business":1204,"mind":1205,"fifty":1206,"forty":1207,"maj":1208,"nineteen":1209,"Amer":1210,"inf":1211,"world":1212,"food":1213,"definite":1214,"Americ":1215,"des":1216,"north":1217,"knew":1218,"thinking":1219,"invol":1220,"second":1221,"middle":1222,"taking":1223,"particul":1224,"##less":1225,"##ps":1226,"##vor":1227,"##ational":1228,"cos":1229,"comput":1230,"##ier":1231,"major":1232,"ret":1233,"particular":1234,"bab":1235,"gir":1236,"funny":1237,"word":1238,"weeks":1239,"##ealth":1240,"serv":1241,"fall":1242,"import":1243,"friends":1244,"listen":1245,"##ently":1246,"cook":1247,"percent":1248,"government":1249,"daught":1250,"pain":1251,"close":1252,"--.":1253,"##redit":1254,"recyc":1255,"draw":1256,"##ix":1257,"tele":1258,"public":1259,"compl":1260,"easy":1261,"rather":1262,"foot":1263,"##og":1264,"outside":1265,"dri":1266,"definitely":1267,"St":1268,"##ced":1269,"doct":1270,"abs":1271,"##ign":1272,"happened":1273,"fine":1274,"check":1275,"credit":1276,"told":1277,"air":1278,"bed":1279,"fire":1280,"##ety":1281,"situation":1282,"city":1283,"father":1284,"##ular":1285,"eat":1286,"##ger":1287,"grou":1288,"##ital":1289,"##itch":1290,"build":1291,"full":1292,"important":1293,"elect":1294,"white":1295,"##idge":1296,"schools":1297,"hours":1298,"program":1299,"tree":1300,"##ey":1301,"##sel":1302,"train":1303,"cars":1304,"##ield":1305,"##ited":1306,"##ider":1307,"loc":1308,"amount":1309,"fore":1310,"health":1311,"sur":1312,"##igh":1313,"##owing":1314,"stre":1315,"corn":1316,"##ork":1317,"##orry":1318,"mumb":1319,"pres":1320,"older":1321,"mumblex":1322,"##elve":1323,"cra":1324,"##na":1325,"paying":1326,"grand":1327,"suppose":1328,"##air":1329,"often":1330,"twelve":1331,"##iew":1332,"met":1333,"moved":1334,"##ize":1335,"emp":1336,"##pital":1337,"living":1338,"daughter":1339,"without":1340,"cover":1341,"sorry":1342,"paid":1343,"involved":1344,"av":1345,"gun":1346,"main":1347,"aff":1348,"sent":1349,"##ught":1350,"quar":1351,"##ants":1352,"education":1353,"nurs":1354,"##ave":1355,"experi":1356,"hor":1357,"quest":1358,"absol":1359,"hot":1360,"kill":1361,"##ired":1362,"grad":1363,"##ail":1364,"gotten":1365,"absolute":1366,"##ric":1367,"##ater":1368,"yourself":1369,"##ided":1370,"favor":1371,"benef":1372,"ent":1373,"son":1374,"##part":1375,"case":1376,"sim":1377,"##ner":1378,"##als":1379,"##IN":1380,"tried":1381,"west":1382,"##ster":1383,"gard":1384,"##ell":1385,"##utes":1386,"consider":1387,"imag":1388,"##ution":1389,"##loy":1390,"wasn":1391,"##urch":1392,"taken":1393,"##aps":1394,"##der":1395,"##though":1396,"anybody":1397,"although":1398,"mach":1399,"summer":1400,"##cc":1401,"##fort":1402,"mom":1403,"works":1404,"contro":1405,"wrong":1406,"road":1407,"drive":1408,"slight":1409,"married":1410,"friend":1411,",.\"":1412,"eighty":1413,"absolutely":1414,"ban":1415,"##gin":1416,"pass":1417,"win":1418,"##ft":1419,"##eam":1420,"##ouble":1421,"##selves":1422,"##ump":1423,"bring":1424,"boat":1425,"age":1426,"##pr":1427,"hope":1428,"follow":1429,"New":1430,"##pa":1431,"deg":1432,"difficul":1433,"jury":1434,"##ls":1435,"eff":1436,"med":1437,"##fer":1438,"##itting":1439,"##rist":1440,"##pl":1441,"##ange":1442,"crime":1443,"taxes":1444,"priv":1445,"gosh":1446,"opp":1447,"sense":1448,"neat":1449,"prop":1450,"difference":1451,"##ses":1452,"##room":1453,"enjoyed":1454,"fig":1455,"minutes":1456,"baby":1457,"wind":1458,"add":1459,"open":1460,"computer":1461,"##led":1462,"##ket":1463,"##ept":1464,"somewhere":1465,"expens":1466,"tot":1467,"##ices":1468,"running":1469,"##ized":1470,"station":1471,"learn":1472,"imagine":1473,"##irc":1474,"clean":1475,"movies":1476,"insur":1477,"engine":1478,"cor":1479,"##ative":1480,"sell":1481,"##ilt":1482,"walk":1483,"spr":1484,"##more":1485,"##ins":1486,"sever":1487,"pull":1488,"til":1489,"##oon":1490,"takes":1491,"##end":1492,"rain":1493,"##unch":1494,"leave":1495,"service":1496,"insurance":1497,"bea":1498,"fel":1499,"fort":1500,"clock":1501,"directly":1502,"garden":1503,"fifteen":1504,"##gan":1505,"concer":1506,"doctor":1507,"difficult":1508,"several":1509,"light":1510,"##ters":1511,"cho":1512,"commun":1513,"experience":1514,"##dd":1515,"##ility":1516,"brother":1517,"cross":1518,"cause":1519,"exc":1520,"changed":1521,"office":1522,"mill":1523,"##mbers":1524,"poss":1525,"ahead":1526,"hop":1527,"rid":1528,"sing":1529,"wouldn":1530,"wood":1531,"field":1532,"##vious":1533,"##vision":1534,"bay":1535,"street":1536,"wear":1537,"weather":1538,"dist":1539,"mostly":1540,"circ":1541,"short":1542,"famil":1543,"exer":1544,"watching":1545,"disc":1546,"##oh":1547,"meet":1548,"anymore":1549,"weeke":1550,"terri":1551,"##ges":1552,"##ries":1553,"base":1554,"nursing":1555,"kept":1556,"luck":1557,"large":1558,"##ete":1559,"##ER":1560,"##ised":1561,"bud":1562,"local":1563,"free":1564,"##ano":1565,"group":1566,"Un":1567,"##eter":1568,"store":1569,"farm":1570,"edge":1571,"employ":1572,"question":1573,"##eady":1574,"black":1575,"miles":1576,"kinds":1577,"everyone":1578,"unless":1579,"recently":1580,"special":1581,"corner":1582,"bro":1583,"tend":1584,"looked":1585,"against":1586,"adv":1587,"early":1588,"depe":1589,"##ures":1590,"sev":1591,"land":1592,"interested":1593,"hold":1594,"fish":1595,"wish":1596,"##ention":1597,"sho":1598,"worth":1599,"lots":1600,"manage":1601,"budget":1602,"vis":1603,"door":1604,"##ton":1605,"##ted":1606,"allow":1607,"ready":1608,"guys":1609,"fairly":1610,"occ":1611,"vote":1612,"##aff":1613,"##ze":1614,"sol":1615,"##ues":1616,"##ward":1617,"##vy":1618,"iss":1619,"ass":1620,"prod":1621,"din":1622,"##ru":1623,"starting":1624,"talked":1625,"books":1626,"var":1627,"bridge":1628,"gave":1629,"##gg":1630,"liked":1631,"##alif":1632,"reading":1633,"##ped":1634,"already":1635,"slightly":1636,"expensive":1637,"##pons":1638,"decided":1639,"national":1640,"pen":1641,"##ane":1642,"rem":1643,"necess":1644,"lost":1645,"send":1646,"neigh":1647,"Pl":1648,"aut":1649,"card":1650,"hous":1651,"pop":1652,"vac":1653,"except":1654,"neighb":1655,"##oint":1656,"map":1657,"prof":1658,"##omes":1659,"lives":1660,"front":1661,"trouble":1662,"haven":1663,"##iting":1664,"trans":1665,"expect":1666,"pos":1667,"couldn":1668,"jud":1669,"##con":1670,"ask":1671,"drugs":1672,"given":1673,"##ishing":1674,"cond":1675,"##cise":1676,"Christ":1677,"##partment":1678,"felt":1679,"##ns":1680,"##iet":1681,"##cy":1682,"support":1683,"catch":1684,"later":1685,"pound":1686,"yard":1687,"##ills":1688,"view":1689,"control":1690,"##ape":1691,"##ined":1692,"##atur":1693,"soci":1694,"quick":1695,"##ivers":1696,"fast":1697,"norm":1698,"regular":1699,"favorite":1700,"##tle":1701,"##ison":1702,"sixty":1703,"awful":1704,"obvious":1705,"##ah":1706,"built":1707,"instead":1708,"social":1709,"using":1710,"cards":1711,"##imin":1712,"themselves":1713,"terms":1714,"proper":1715,"bur":1716,"rad":1717,"##haps":1718,"##oth":1719,"##ident":1720,"needs":1721,"##ames":1722,"perhaps":1723,"phone":1724,"##ering":1725,"##obb":1726,"drop":1727,"extra":1728,"dress":1729,"late":1730,"pun":1731,"mot":1732,"##ES":1733,"##mas":1734,"##orts":1735,"looks":1736,"typ":1737,"polit":1738,"##ron":1739,"cases":1740,"##ship":1741,"mag":1742,"camping":1743,"equ":1744,"box":1745,"Plano":1746,"col":1747,"hit":1748,"team":1749,"inform":1750,"exercise":1751,"lad":1752,"mr":1753,"##nday":1754,"##ark":1755,"nobody":1756,"##asion":1757,"carry":1758,"record":1759,"leg":1760,"hea":1761,"areas":1762,"death":1763,"poll":1764,"amaz":1765,"ru":1766,"rope":1767,"gradu":1768,"turned":1769,"woman":1770,"trees":1771,"American":1772,"bother":1773,"event":1774,"##arily":1775,"brought":1776,"##oc":1777,"##ale":1778,"##uss":1779,"##ows":1780,"##ester":1781,"##vers":1782,"##rove":1783,"TH":1784,"soon":1785,"truck":1786,"diam":1787,"putting":1788,"requ":1789,"exam":1790,"cold":1791,"complete":1792,"seventy":1793,"society":1794,"sign":1795,"God":1796,"thank":1797,"pie":1798,"sn":1799,"##ties":1800,"hur":1801,"organ":1802,"##ney":1803,"punish":1804,"power":1805,"##iday":1806,"char":1807,"travel":1808,"weekend":1809,"econ":1810,"game":1811,"vol":1812,"##ient":1813,"needed":1814,"##iod":1815,"diag":1816,"subject":1817,"econom":1818,"##van":1819,"chance":1820,"period":1821,"sitting":1822,"##ior":1823,"##ully":1824,"##ber":1825,"beh":1826,"step":1827,"aha":1828,"happy":1829,"contin":1830,"##astic":1831,"ways":1832,"happens":1833,"easier":1834,"ninety":1835,"police":1836,"##ides":1837,"recycling":1838,"obviously":1839,"yep":1840,"##ality":1841,"church":1842,"feeling":1843,"cre":1844,"lim":1845,"bag":1846,"mess":1847,"tough":1848,"##med":1849,"##chn":1850,"break":1851,"pat":1852,"wall":1853,"press":1854,"shows":1855,"general":1856,"concerned":1857,"diamond":1858,"##aur":1859,"##ging":1860,"goodness":1861,"jobs":1862,"##unt":1863,"##gr":1864,"##ats":1865,"##ature":1866,"dinner":1867,"bra":1868,"begin":1869,"within":1870,"realize":1871,"minute":1872,"seemed":1873,"management":1874,"its":1875,"orig":1876,"##acy":1877,"asked":1878,"houses":1879,"fre":1880,"jo":1881,"red":1882,"##ird":1883,"sister":1884,"space":1885,"finished":1886,"##ake":1887,"isn":1888,"companies":1889,"diagon":1890,"origin":1891,"won":1892,"##sw":1893,"##cri":1894,"##ret":1895,"worry":1896,"topic":1897,"teleph":1898,"benefits":1899,"neighbor":1900,"gas":1901,"river":1902,"##ease":1903,"green":1904,"playing":1905,"hang":1906,"story":1907,"third":1908,"##ract":1909,"##ult":1910,"grew":1911,"##ivid":1912,"changes":1913,"students":1914,"afford":1915,"##paper":1916,"radio":1917,"fan":1918,"spent":1919,"feet":1920,"winter":1921,"degree":1922,"terrible":1923,"profess":1924,"hos":1925,"forth":1926,"##used":1927,"income":1928,"figure":1929,"##aliforn":1930,"##lish":1931,"##onna":1932,"growing":1933,"inside":1934,"centimetre":1935,"individ":1936,"effect":1937,"magaz":1938,"low":1939,"ought":1940,"seas":1941,"##lt":1942,"answ":1943,"respons":1944,"beaut":1945,"fol":1946,"##iced":1947,"machine":1948,"punishment":1949,"##alifornia":1950,"California":1951,"fur":1952,"finally":1953,"term":1954,"alright":1955,"bi":1956,"##row":1957,"##iff":1958,"##AN":1959,"##ones":1960,"dad":1961,"hate":1962,"oil":1963,"##ak":1964,"##ming":1965,"become":1966,"rent":1967,"longer":1968,"perf":1969,"process":1970,"telephone":1971,"homes":1972,"val":1973,"##night":1974,"##leep":1975,"manag":1976,"cot":1977,"gar":1978,"smo":1979,"television":1980,"golf":1981,"##EN":1982,"stri":1983,"techn":1984,"teacher":1985,"beautif":1986,"tom":1987,"capital":1988,"trial":1989,"teachers":1990,"vacation":1991,"information":1992,"bes":1993,"##gest":1994,"##ys":1995,"stick":1996,"ground":1997,"personal":1998,"##velop":1999,"younger":2000,"##iversity":2001,"hospital":2002,"##ude":2003,"##ories":2004,"##ction":2005,"restaur":2006,"particularly":2007,"community":2008,"THE":2009,"##rict":2010,"##ured":2011,"pract":2012,"programs":2013,"forest":2014,"Christmas":2015,"##anch":2016,"ours":2017,"boys":2018,"building":2019,"##ING":2020,"lately":2021,"##nel":2022,"shape":2023,"collect":2024,"testing":2025,"avo":2026,"moment":2027,"sevent":2028,"cans":2029,"totally":2030,"individual":2031,"fishing":2032,"pine":2033,"##ared":2034,"gold":2035,"throw":2036,"sat":2037,"##ives":2038,"##hood":2039,"##ste":2040,"##ots":2041,"staff":2042,"club":2043,"##ific":2044,"current":2045,"product":2046,"dead":2047,"wants":2048,"##olog":2049,"strong":2050,"girl":2051,"amazing":2052,"beautiful":2053,"lab":2054,"##itive":2055,"flat":2056,"buying":2057,"football":2058,"driving":2059,"private":2060,"mur":2061,"##aw":2062,"##gle":2063,"##bt":2064,"forget":2065,"adm":2066,"newspaper":2067,"serious":2068,"write":2069,"strange":2070,"student":2071,"glad":2072,"vot":2073,"##OR":2074,"caught":2075,"means":2076,"twice":2077,"price":2078,"eleven":2079,"em":2080,"##ians":2081,"##up":2082,"##ler":2083,"##par":2084,"##ences":2085,"worse":2086,"develop":2087,"coun":2088,"played":2089,"countries":2090,"fix":2091,"hide":2092,"mod":2093,"sea":2094,"weight":2095,"##unately":2096,"size":2097,"opin":2098,"shoot":2099,"Eng":2100,"York":2101,"ev":2102,"oper":2103,"##ator":2104,"form":2105,"anywhere":2106,"charge":2107,"incr":2108,"choice":2109,"families":2110,"issue":2111,"completely":2112,"band":2113,"lay":2114,"till":2115,"##oes":2116,"##iter":2117,"trip":2118,"unfort":2119,"market":2120,"##tage":2121,"knows":2122,"prov":2123,"exce":2124,"plant":2125,"clear":2126,"sports":2127,"bath":2128,"gonna":2129,"##ered":2130,"##oned":2131,"stone":2132,"ref":2133,"##ash":2134,"##reek":2135,"##ade":2136,"bigger":2137,"halfway":2138,"bedroom":2139,"training":2140,"further":2141,"fac":2142,"pot":2143,"wer":2144,"higher":2145,"Mex":2146,"Th":2147,"rout":2148,"rough":2149,"##to":2150,"##ank":2151,"order":2152,"const":2153,"party":2154,"crane":2155,"eighteen":2156,"teaching":2157,"words":2158,"possib":2159,"avoid":2160,"bunch":2161,"##ems":2162,"##lor":2163,"##gu":2164,"##ances":2165,"##aster":2166,"dem":2167,"thanks":2168,"doesn":2169,"example":2170,"fight":2171,"pict":2172,"##how":2173,"##ged":2174,"##eap":2175,"itself":2176,"likes":2177,"##irt":2178,"super":2179,"plus":2180,"##ages":2181,"rocks":2182,"ball":2183,"hobb":2184,"oth":2185,"##br":2186,"##zy":2187,"seeing":2188,"cloth":2189,"ended":2190,"giving":2191,"heavy":2192,"pack":2193,"sleep":2194,"##ech":2195,"##AR":2196,"##ising":2197,"##earch":2198,"##alley":2199,"temp":2200,"carp":2201,"accept":2202,"grow":2203,"autom":2204,"dut":2205,"hol":2206,"rate":2207,"##unk":2208,"prot":2209,"grade":2210,"single":2211,"squ":2212,"##house":2213,"##ency":2214,"art":2215,"stayed":2216,"electric":2217,"occasion":2218,"weren":2219,"due":2220,"##ina":2221,"##ilar":2222,"quality":2223,"flo":2224,"indust":2225,"van":2226,"activ":2227,"poor":2228,"bill":2229,"mix":2230,"##no":2231,"##ana":2232,"ship":2233,"comfort":2234,"evening":2235,"decide":2236,"allowed":2237,"pollution":2238,"Ar":2239,"tur":2240,"##ping":2241,"##ese":2242,"prefer":2243,"del":2244,"speak":2245,"keeping":2246,"died":2247,"sad":2248,"calls":2249,"crimin":2250,"##ization":2251,"account":2252,"killed":2253,"##ground":2254,"cottage":2255,"others":2256,"born":2257,"lead":2258,"##yl":2259,"##RE":2260,"##ays":2261,"##roc":2262,"depends":2263,"excell":2264,"fit":2265,"##ying":2266,"##yard":2267,"##rees":2268,"biggest":2269,"horiz":2270,"buck":2271,"cats":2272,"stopped":2273,"girls":2274,"##airs":2275,"visit":2276,"Mexic":2277,"excellent":2278,"dry":2279,"##AL":2280,"##reme":2281,"aband":2282,"##oose":2283,"anyone":2284,"saving":2285,"dep":2286,"##mend":2287,"hist":2288,"United":2289,"judge":2290,"behind":2291,"mention":2292,"sick":2293,"##rit":2294,"##ON":2295,"##erg":2296,"mail":2297,"push":2298,"quarry":2299,"discuss":2300,"season":2301,"dred":2302,"fill":2303,"##umb":2304,"##atic":2305,"huge":2306,"##ched":2307,"picked":2308,"learned":2309,"##wich":2310,"##vine":2311,"##eaking":2312,"##ilty":2313,"members":2314,"guilty":2315,"env":2316,"offic":2317,"##ift":2318,"spending":2319,"classes":2320,"surpr":2321,"medical":2322,"##emp":2323,"##iar":2324,"##ush":2325,"##cing":2326,"##point":2327,"noticed":2328,"##iron":2329,"##rib":2330,"conf":2331,"telling":2332,"\"\".\"":2333,"##apers":2334,"penal":2335,"profession":2336,"horizont":2337,"##ipp":2338,"##OU":2339,"self":2340,"##ashing":2341,"project":2342,"conv":2343,"scary":2344,"decision":2345,"milit":2346,"paint":2347,"lucky":2348,"necessarily":2349,"##aturday":2350,"answer":2351,"abandoned":2352,"environ":2353,"Oh":2354,"Su":2355,"##ilities":2356,"starts":2357,"watched":2358,"swe":2359,"swim":2360,"walking":2361,"dogs":2362,"##ding":2363,"sold":2364,"sem":2365,"plastic":2366,"save":2367,"roll":2368,"report":2369,"neighborhood":2370,"lower":2371,"pet":2372,"##ental":2373,"feed":2374,"similar":2375,"eventually":2376,"piece":2377,"Car":2378,"##my":2379,"##sters":2380,"hell":2381,"trade":2382,"expl":2383,"snow":2384,"dou":2385,"hon":2386,"vi":2387,"##nam":2388,"##ern":2389,"ups":2390,"became":2391,"##tern":2392,"##acks":2393,"department":2394,"finan":2395,"hideout":2396,"clothes":2397,"environment":2398,"fil":2399,"##ogra":2400,"pleas":2401,"parts":2402,"dollar":2403,"gives":2404,"glass":2405,"America":2406,"beginning":2407,"sand":2408,"tour":2409,"vert":2410,"##eant":2411,"wher":2412,"anim":2413,"crimes":2414,"happening":2415,"phys":2416,"avail":2417,"guns":2418,"correct":2419,"unfortunately":2420,"##ral":2421,"##cil":2422,"hey":2423,"cash":2424,"saf":2425,"centre":2426,"busy":2427,"aware":2428,"baseball":2429,"various":2430,"est":2431,"meal":2432,"##ase":2433,"##ium":2434,"##wise":2435,"##work":2436,"shore":2437,"prison":2438,"handle":2439,"himself":2440,"respect":2441,"extreme":2442,"States":2443,"excuse":2444,"circle":2445,"military":2446,"Fr":2447,"San":2448,"cool":2449,"##ston":2450,"ant":2451,"##icken":2452,"ravine":2453,"attit":2454,"degrees":2455,"oppos":2456,"originally":2457,"Pen":2458,"dam":2459,"deter":2460,"lau":2461,"tou":2462,"valley":2463,"##papers":2464,"##mid":2465,"sus":2466,"newspapers":2467,"##ivil":2468,"inde":2469,"secret":2470,"generally":2471,"bank":2472,"det":2473,"lose":2474,"##av":2475,"##isc":2476,"slate":2477,"learning":2478,"costs":2479,"quarter":2480,"privacy":2481,"hurt":2482,"safe":2483,"sixteen":2484,"channel":2485,"##ption":2486,"incl":2487,"waiting":2488,"depend":2489,"protect":2490,"viol":2491,"fut":2492,"tick":2493,"shot":2494,"committ":2495,"retired":2496,"comfortable":2497,"dear":2498,"dump":2499,"ye":2500,"##got":2501,"##bo":2502,"##reat":2503,"lawn":2504,"rail":2505,"park":2506,"grandm":2507,"require":2508,"murder":2509,"##nes":2510,"##enced":2511,"center":2512,"writing":2513,"##anger":2514,"affect":2515,"pounds":2516,"available":2517,"So":2518,"Washing":2519,"creek":2520,"gee":2521,"games":2522,"ann":2523,"separ":2524,"##eans":2525,"grass":2526,"generation":2527,"bak":2528,"recycle":2529,"crazy":2530,"benefit":2531,"possible":2532,"familiar":2533,"Eur":2534,"fed":2535,"jump":2536,"ooh":2537,"vide":2538,"##icking":2539,"whenever":2540,"nowad":2541,"##ortun":2542,"##ado":2543,"cliff":2544,"personally":2545,"helps":2546,"serve":2547,"hopef":2548,"nowadays":2549,"bor":2550,"clos":2551,"##ealed":2552,"helped":2553,"phot":2554,"smaller":2555,"numbers":2556,"opinion":2557,"opposite":2558,"Washington":2559,"Vir":2560,"##app":2561,"##ota":2562,"##amp":2563,"coast":2564,"unc":2565,"heart":2566,"research":2567,"appl":2568,"fallen":2569,"mainly":2570,"banana":2571,"opportun":2572,"position":2573,"Virgin":2574,"apartment":2575,"nor":2576,"stock":2577,"relation":2578,"graduate":2579,"hopefully":2580,"Virginia":2581,"aver":2582,"iron":2583,"##por":2584,"##view":2585,"##erman":2586,"##ett":2587,"notice":2588,"chicken":2589,"table":2590,"hands":2591,"county":2592,"cooking":2593,"normal":2594,"##medi":2595,"cop":2596,"##time":2597,"##erial":2598,"##eace":2599,"##key":2600,"##outs":2601,"##raid":2602,"afraid":2603,"fourteen":2604,"scr":2605,"helping":2606,"thirteen":2607,"lawy":2608,"future":2609,"taught":2610,"##port":2611,"##eral":2612,"wheel":2613,"soft":2614,"moving":2615,"alone":2616,"post":2617,"calling":2618,"based":2619,"fund":2620,"types":2621,"continue":2622,"bags":2623,"holiday":2624,"North":2625,"mead":2626,"mist":2627,"meant":2628,"##arent":2629,"##pers":2630,"##fall":2631,"##AT":2632,"slow":2633,"apparent":2634,"direction":2635,"district":2636,"pressure":2637,"council":2638,"Col":2639,"bal":2640,"pur":2641,"##ax":2642,"##ruct":2643,"##men":2644,"##ida":2645,"buff":2646,"sorts":2647,"drink":2648,"basic":2649,"raised":2650,"switch":2651,"infl":2652,"normally":2653,"Flor":2654,"aer":2655,"vill":2656,"yo":2657,"##west":2658,"reci":2659,"yours":2660,"##thern":2661,"trash":2662,"##while":2663,"cattle":2664,"spring":2665,"magazines":2666,"Florida":2667,"wide":2668,"##ec":2669,"##ief":2670,"waste":2671,"known":2672,"hunt":2673,"##ism":2674,"force":2675,"##astery":2676,"wanting":2677,"##rench":2678,"keeps":2679,"monastery":2680,"attention":2681,"standard":2682,"retire":2683,"entire":2684,"possibly":2685,"industry":2686,"average":2687,"##ev":2688,"tha":2689,"##rew":2690,"sew":2691,"rece":2692,"##ists":2693,"basis":2694,"##ressed":2695,"changing":2696,"simple":2697,"motor":2698,"diagonally":2699,"apparently":2700,"civil":2701,"jail":2702,"##ees":2703,"##ration":2704,"##east":2705,"suff":2706,"##pend":2707,"otherwise":2708,"enc":2709,"union":2710,"letter":2711,"grave":2712,"flow":2713,"common":2714,"immedi":2715,"advant":2716,"Sunday":2717,"attitude":2718,"meadow":2719,"groc":2720,"rap":2721,"wire":2722,"##hip":2723,"##TY":2724,"##itions":2725,"forward":2726,"##vert":2727,"reach":2728,"load":2729,"finding":2730,"stream":2731,"salary":2732,"complain":2733,"perfect":2734,"restaurant":2735,"##ology":2736,"grandmother":2737,"Rich":2738,"sci":2739,"##over":2740,"##icip":2741,"##ural":2742,"##ulation":2743,"argu":2744,"court":2745,"hardly":2746,"material":2747,"##ibility":2748,"laws":2749,"nearly":2750,"Hou":2751,"fence":2752,"lines":2753,"ran":2754,"roo":2755,"##aim":2756,"##uit":2757,"##gth":2758,"##oura":2759,"weird":2760,"stations":2761,"##ops":2762,"suc":2763,"##iling":2764,"teen":2765,"systems":2766,"sales":2767,"meeting":2768,"positive":2769,"economy":2770,"floor":2771,"touch":2772,"Houston":2773,"bat":2774,"body":2775,"sched":2776,"willing":2777,"##ipment":2778,"waterfall":2779,"property":2780,"occasionally":2781,"mentioned":2782,"ju":2783,"lunch":2784,"vers":2785,"##OM":2786,"##ication":2787,"heat":2788,"##urgh":2789,"chem":2790,"##unate":2791,"loved":2792,"planning":2793,"present":2794,"fields":2795,"quickly":2796,"equipment":2797,"kitch":2798,"##uce":2799,"##urity":2800,"shel":2801,"##une":2802,"total":2803,"spread":2804,"condition":2805,"charac":2806,"folk":2807,"criminal":2808,"penalty":2809,"aerob":2810,"Is":2811,"natur":2812,"purch":2813,"##ham":2814,"##for":2815,"wash":2816,"##icy":2817,"##itten":2818,"actual":2819,"nights":2820,"engineering":2821,"volunt":2822,"join":2823,"cliffs":2824,"roof":2825,"Mary":2826,"Ut":2827,"face":2828,"ips":2829,"##oming":2830,"sty":2831,"##alt":2832,"somehow":2833,"tape":2834,"everywhere":2835,"convers":2836,"appro":2837,"concealed":2838,"popular":2839,"##nsyl":2840,"lady":2841,"strike":2842,"##ograph":2843,"Pennsyl":2844,"Utah":2845,"ipswich":2846,"burn":2847,"odd":2848,"site":2849,"##ument":2850,"bread":2851,"marked":2852,"board":2853,"minor":2854,"treat":2855,"##dden":2856,"color":2857,"surprised":2858,"doubt":2859,"village":2860,"Spr":2861,"Viet":2862,"eye":2863,"##old":2864,"##ume":2865,"##mar":2866,"##atoes":2867,"stones":2868,"##ises":2869,"share":2870,"sudden":2871,"computers":2872,"beach":2873,"history":2874,"honest":2875,"kitchen":2876,"Pennsylvan":2877,"cart":2878,"##pes":2879,"##IS":2880,"##reed":2881,"##orado":2882,"human":2883,"stories":2884,"sun":2885,"however":2886,"##ored":2887,"veget":2888,"easily":2889,"mountains":2890,"entertain":2891,"corpor":2892,"increas":2893,"##boy":2894,"##IT":2895,"##icated":2896,"shar":2897,"plenty":2898,"prin":2899,"wondering":2900,"##bled":2901,"##angu":2902,"passed":2903,"selling":2904,"broken":2905,"limit":2906,"bike":2907,"duty":2908,"Pennsylvania":2909,"Ind":2910,"eating":2911,"ill":2912,"langu":2913,"wild":2914,"##ially":2915,"##bs":2916,"##inist":2917,"##urse":2918,"##terday":2919,"maint":2920,"comb":2921,"yesterday":2922,"spo":2923,"points":2924,"warm":2925,"raise":2926,"groups":2927,"hoping":2928,"whereas":2929,"Sh":2930,"gall":2931,"##erv":2932,"##ony":2933,"onto":2934,"stage":2935,"angle":2936,"reun":2937,"alum":2938,"spec":2939,"reasonable":2940,"covered":2941,"##ocr":2942,"success":2943,"NE":2944,"hors":2945,"pool":2946,"tired":2947,"##noon":2948,"##yond":2949,"tonight":2950,"hair":2951,"beyond":2952,"##lect":2953,"states":2954,"quit":2955,"afternoon":2956,"bottles":2957,"doctors":2958,"financial":2959,"Colorado":2960,"Cl":2961,"East":2962,"##sing":2963,"##isf":2964,"##ults":2965,"prim":2966,"turns":2967,"appeal":2968,"buses":2969,"hole":2970,"ski":2971,"diagonal":2972,"beside":2973,"activities":2974,"advantage":2975,"South":2976,"##ole":2977,"##ids":2978,"chest":2979,"particip":2980,"##els":2981,"fourth":2982,"blue":2983,"invest":2984,"fell":2985,"majority":2986,"University":2987,"vari":2988,"steps":2989,"Europe":2990,"Maryland":2991,"Al":2992,"Cor":2993,"Saturday":2994,"dark":2995,"gate":2996,"liter":2997,"##ule":2998,"##ply":2999,"arr":3000,"background":3001,"active":3002,"spot":3003,"speaking":3004,"university":3005,"written":3006,"incred":3007,"reasons":3008,"horse":3009,"considered":3010,"picture":3011,"hello":3012,"video":3013,"opportunity":3014,"Lake":3015,"Min":3016,"danger":3017,"eld":3018,"lod":3019,"tin":3020,"vo":3021,"##rop":3022,"##by":3023,"##atory":3024,"##owboy":3025,"##ening":3026,"dock":3027,"cheap":3028,"ourselves":3029,"stuck":3030,"##antly":3031,"policy":3032,"tested":3033,"barn":3034,"listening":3035,"State":3036,"coverage":3037,"brothers":3038,"motiv":3039,"value":3040,"route":3041,"separate":3042,"alumin":3043,"Can":3044,"Mid":3045,"deep":3046,"rand":3047,"tu":3048,"##gn":3049,"##bles":3050,"beat":3051,"sixties":3052,"blo":3053,"block":3054,"contrib":3055,"subs":3056,"##place":3057,"viewpoint":3058,"political":3059,"folks":3060,"upset":3061,"bills":3062,"fing":3063,"lar":3064,"none":3065,"pill":3066,"sau":3067,"song":3068,"##dy":3069,"##gue":3070,"##lled":3071,"##ened":3072,"hall":3073,"##icle":3074,"aspect":3075,"plants":3076,"lock":3077,"branch":3078,"oldest":3079,"slope":3080,"##iculous":3081,"cheese":3082,"heading":3083,"horri":3084,"gardening":3085,"ridiculous":3086,"responsibility":3087,"savings":3088,"City":3089,"Jap":3090,"meas":3091,"sou":3092,"##nect":3093,"##fully":3094,"##erly":3095,"##oma":3096,"##enter":3097,"forgot":3098,"##alo":3099,"division":3100,"##igned":3101,"deb":3102,"##cipl":3103,"carried":3104,"compet":3105,"career":3106,"teams":3107,"picket":3108,"repl":3109,"repair":3110,"lovely":3111,"issues":3112,"transport":3113,"graveyard":3114,"Richards":3115,"aluminum":3116,"Well":3117,"cal":3118,"ded":3119,"jur":3120,"port":3121,"pard":3122,"##line":3123,"##pan":3124,"threat":3125,"##atives":3126,"section":3127,"worst":3128,"##ived":3129,"conven":3130,"carved":3131,"prom":3132,"careful":3133,"basket":3134,"mark":3135,"attract":3136,"painting":3137,"sentence":3138,"distance":3139,"satisf":3140,"influ":3141,"flowers":3142,"random":3143,"nurse":3144,"##eg":3145,"##eor":3146,"compared":3147,"trad":3148,"discipl":3149,"return":3150,"manager":3151,"garage":3152,"English":3153,"electricity":3154,"professional":3155,"convict":3156,"encoura":3157,"It":3158,"bic":3159,"bir":3160,"cult":3161,"da":3162,"hy":3163,"##uth":3164,"hadn":3165,"suit":3166,"offer":3167,"##cious":3168,"papers":3169,"loan":3170,"##ished":3171,"belong":3172,"runs":3173,"improve":3174,"instance":3175,"metal":3176,"machines":3177,"magazine":3178,"bakery":3179,"shelter":3180,"pardon":3181,"Aust":3182,"cities":3183,"jun":3184,"len":3185,"ride":3186,"##ID":3187,"##ata":3188,"tor":3189,"knock":3190,"##ustom":3191,"star":3192,"choose":3193,"commer":3194,"div":3195,"pole":3196,"kidding":3197,"grown":3198,"owned":3199,"minim":3200,"wooden":3201,"responsible":3202,"besides":3203,"swimming":3204,"vertically":3205,"federal":3206,"aerobics":3207,"horses":3208,"elderly":3209,"Gar":3210,"ST":3211,"double":3212,"net":3213,"nature":3214,"##gress":3215,"##bed":3216,"##bbled":3217,"##ffic":3218,"die":3219,"##oles":3220,"ideas":3221,"inspect":3222,"related":3223,"extent":3224,"boats":3225,"##ended":3226,"extremely":3227,"laugh":3228,"science":3229,"NEW":3230,"horrible":3231,"Japan":3232,"bicyc":3233,"fly":3234,"sen":3235,"tro":3236,"##ators":3237,"ware":3238,"stile":3239,"trout":3240,"coach":3241,"quiet":3242,"dev":3243,"classical":3244,"standing":3245,"missed":3246,"simply":3247,"##estern":3248,"seventies":3249,"administ":3250,"hobbies":3251,"turning":3252,"German":3253,"awhile":3254,"ir":3255,"pitch":3256,"sour":3257,"tent":3258,"##ET":3259,"##ND":3260,"##oud":3261,"##inary":3262,"##ona":3263,"seat":3264,"plays":3265,"dealing":3266,"milk":3267,"supposedly":3268,"remote":3269,"necessary":3270,"hobby":3271,"safety":3272,"relationship":3273,"Vietnam":3274,"Richardson":3275,"Cowboy":3276,"cute":3277,"dish":3278,"key":3279,"##aly":3280,"##IM":3281,"##fish":3282,"##omin":3283,"rights":3284,"##ils":3285,"truth":3286,"mem":3287,"##ildren":3288,"monument":3289,"curving":3290,"staying":3291,"##ission":3292,"earl":3293,"rooms":3294,"drawing":3295,"fresh":3296,"smoke":3297,"commercial":3298,"egg":3299,"pian":3300,"##ran":3301,"##iam":3302,"##icles":3303,"cler":3304,"prices":3305,"hearing":3306,"blood":3307,"territ":3308,"cutting":3309,"summ":3310,"descri":3311,"effort":3312,"windows":3313,"##ohn":3314,"legal":3315,"Ant":3316,"Sc":3317,"bul":3318,"cous":3319,"row":3320,"tip":3321,"##ike":3322,"##mith":3323,"##bage":3324,"hay":3325,"whe":3326,"##ications":3327,"cap":3328,"##rael":3329,"meat":3330,"sax":3331,"intr":3332,"pump":3333,"contract":3334,"strict":3335,"invasion":3336,"security":3337,"babies":3338,"metric":3339,"circum":3340,"stores":3341,"expected":3342,"Mexico":3343,"horizontally":3344,"Carol":3345,"explain":3346,"railway":3347,"schedule":3348,"Israel":3349,"language":3350,"Balt":3351,"In":3352,"bear":3353,"pan":3354,"ris":3355,"rich":3356,"range":3357,"##atf":3358,"##lls":3359,"##idence":3360,"shall":3361,"##iled":3362,"##uses":3363,"appre":3364,"defense":3365,"imm":3366,"engineer":3367,"broke":3368,"square":3369,"independ":3370,"teenag":3371,"character":3372,"French":3373,"OF":3374,"apart":3375,"bord":3376,"hook":3377,"ice":3378,"##ued":3379,"##OS":3380,"##zen":3381,"##que":3382,"##erm":3383,"##uted":3384,"island":3385,"stat":3386,"asking":3387,"outl":3388,"sisters":3389,"##izing":3390,"traffic":3391,"wrote":3392,"questions":3393,"figured":3394,"million":3395,"ruined":3396,"includ":3397,"photograph":3398,"grocery":3399,"variety":3400,"Bush":3401,"Mar":3402,"gain":3403,"##dict":3404,"##erry":3405,"##idents":3406,"##chool":3407,"##irk":3408,"somewh":3409,"sugg":3410,"track":3411,"veh":3412,"gran":3413,"disp":3414,"instit":3415,"saloon":3416,"prior":3417,"services":3418,"##ogn":3419,"window":3420,"fortunate":3421,"typical":3422,"mrs":3423,"technical":3424,"restaurants":3425,"England":3426,"purp":3427,"incredible":3428,"warehouse":3429,"suggest":3430,"Geor":3431,"ap":3432,"wise":3433,"##uly":3434,"##back":3435,"shut":3436,"altern":3437,"##iles":3438,"arm":3439,"debt":3440,"spl":3441,"sport":3442,"recogn":3443,"relax":3444,"grandch":3445,"meetings":3446,"employees":3447,"assist":3448,"##bridge":3449,"carpenter":3450,"committee":3451,"hunting":3452,"reunion":3453,"somewhat":3454,"bass":3455,"grove":3456,"lit":3457,"nic":3458,"##father":3459,"##atch":3460,"##onio":3461,"lif":3462,"liber":3463,"steam":3464,"##imate":3465,"held":3466,"shift":3467,"upwards":3468,"trust":3469,"##aint":3470,"##eez":3471,"##ules":3472,"intern":3473,"among":3474,"recom":3475,"served":3476,"##uced":3477,"fellow":3478,"desert":3479,"weekends":3480,"blacks":3481,"shoes":3482,"required":3483,"products":3484,"fighting":3485,"mixed":3486,"retirement":3487,"chemical":3488,"style":3489,"Spring":3490,"Indian":3491,"sauce":3492,"junior":3493,"piano":3494,"Antonio":3495,"Carolina":3496,"custom":3497,"data":3498,"path":3499,"##akes":3500,"##eath":3501,"##bing":3502,"##eared":3503,"##eaks":3504,"toward":3505,"##eds":3506,"##eth":3507,"##aries":3508,"cand":3509,"rev":3510,"monday":3511,"worried":3512,"chain":3513,"exec":3514,"speech":3515,"element":3516,"settle":3517,"accom":3518,"thousands":3519,"obst":3520,"Americans":3521,"driver":3522,"graduated":3523,"perform":3524,"garbage":3525,"lawyers":3526,"earlier":3527,"grandchildren":3528,"recommend":3529,"Ok":3530,"TW":3531,"TIM":3532,"dow":3533,"ey":3534,"non":3535,"##off":3536,"##eb":3537,"##do":3538,"##gar":3539,"##IG":3540,"##eries":3541,"knowled":3542,"humid":3543,"god":3544,"##iding":3545,"select":3546,"ord":3547,"notes":3548,"refer":3549,"##geous":3550,"##ille":3551,"action":3552,"cream":3553,"contact":3554,"disapp":3555,"##ugust":3556,"struct":3557,"object":3558,"brand":3559,"increase":3560,"bathroom":3561,"animals":3562,"tickets":3563,"dangerous":3564,"saxon":3565,"Mich":3566,"bon":3567,"cit":3568,"fra":3569,"fant":3570,"lu":3571,"mis":3572,"mile":3573,"picking":3574,"ver":3575,"western":3576,"##ring":3577,"##col":3578,"##bit":3579,"##ination":3580,"wel":3581,"wages":3582,"##icit":3583,"shill":3584,"allot":3585,"alive":3586,"##ama":3587,"pebbled":3588,"everyday":3589,"coff":3590,"spare":3591,"interview":3592,"##ago":3593,"smart":3594,"Chic":3595,"tremend":3596,"footbridge":3597,"opposed":3598,"pulled":3599,"original":3600,"managed":3601,"provide":3602,"pictures":3603,"pillars":3604,"basketball":3605,"length":3606,"appreci":3607,"Pres":3608,"Russ":3609,"lic":3610,"##erve":3611,"##ene":3612,"cable":3613,"##ault":3614,"someplace":3615,"fright":3616,"##asc":3617,"##ables":3618,"##ada":3619,"qualif":3620,"role":3621,"crow":3622,"advert":3623,"harder":3624,"##ension":3625,"instru":3626,"beneath":3627,"forever":3628,"cleaning":3629,"##ergart":3630,"buffalo":3631,"immediately":3632,"volunte":3633,"tremendous":3634,"Co":3635,"bird":3636,"ce":3637,"date":3638,"names":3639,"##nis":3640,"##lah":3641,"##ma":3642,"##OO":3643,"##eaper":3644,"##owl":3645,"##anc":3646,"likely":3647,"##irts":3648,"upon":3649,"asso":3650,"chap":3651,"cheaper":3652,"sometime":3653,"##ability":3654,"realized":3655,"firm":3656,"players":3657,"leaving":3658,"leaves":3659,"collaps":3660,"##ached":3661,"relig":3662,"mothers":3663,"accident":3664,"surv":3665,"politics":3666,"boxes":3667,"Mexican":3668,"horizontal":3669,"##OUR":3670,"suspect":3671,"Sov":3672,"recipe":3673,"Corps":3674,"Cowboys":3675,"territory":3676,"Oklah":3677,"allotments":3678,"associ":3679,"AND":3680,"Ira":3681,"cro":3682,"pin":3683,"wea":3684,"##OL":3685,"##AS":3686,"thick":3687,"tow":3688,"##rest":3689,"init":3690,"##ites":3691,"knowing":3692,"##imore":3693,"frust":3694,"workers":3695,"##ears":3696,"connect":3697,"stup":3698,"brown":3699,"##icks":3700,"bits":3701,"payment":3702,"##istic":3703,"##sburgh":3704,"fifth":3705,"situations":3706,"salad":3707,"roads":3708,"solid":3709,"##rupt":3710,"labour":3711,"bucks":3712,"officer":3713,"##ITH":3714,"birth":3715,"Baltimore":3716,"obstac":3717,"citiz":3718,"Oklahoma":3719,"Iraq":3720,"Pitt":3721,"War":3722,"breed":3723,"drove":3724,"flex":3725,"pets":3726,"##nic":3727,"##ware":3728,"##val":3729,"shock":3730,"cas":3731,"cab":3732,"camer":3733,"neg":3734,"becoming":3735,"kindergart":3736,"feels":3737,"boss":3738,"apprent":3739,"subst":3740,"regard":3741,"shopping":3742,"missing":3743,"percentage":3744,"solution":3745,"burnt":3746,"walled":3747,"fixed":3748,"conversation":3749,"influence":3750,"circumst":3751,"Chicago":3752,"stupid":3753,"Or":3754,"Park":3755,"fro":3756,"##IC":3757,"##lling":3758,"stew":3759,"##opes":3760,"becomes":3761,"claim":3762,"access":3763,"speed":3764,"blow":3765,"tennis":3766,"flag":3767,"##ression":3768,"commit":3769,"relative":3770,"painted":3771,"quarters":3772,"following":3773,"concern":3774,"broad":3775,"occur":3776,"seventeen":3777,"bedrooms":3778,"physical":3779,"boring":3780,"successful":3781,"NEWS":3782,"camera":3783,"Ph":3784,"Peace":3785,"WITH":3786,"furn":3787,"fenced":3788,"jeez":3789,"py":3790,"sens":3791,"##ror":3792,"##gs":3793,"##pine":3794,"##atically":3795,"##ari":3796,"##isions":3797,"forced":3798,"##aced":3799,"note":3800,"repe":3801,"mass":3802,"plans":3803,"whoever":3804,"coal":3805,"prevent":3806,"##ified":3807,"puts":3808,"handy":3809,"tests":3810,"##angers":3811,"study":3812,"##inese":3813,"regist":3814,"properly":3815,"signific":3816,"limited":3817,"##board":3818,"Middle":3819,"subscri":3820,"introd":3821,"eyes":3822,"collapsed":3823,"Soviet":3824,"Ford":3825,"Hond":3826,"dot":3827,"dest":3828,"hill":3829,"rub":3830,"##sy":3831,"##iving":3832,"##coh":3833,"##gun":3834,"##fts":3835,"##encing":3836,"shr":3837,"##ode":3838,"##iring":3839,"##aul":3840,"##ctob":3841,"##ramid":3842,"christ":3843,"alcoh":3844,"herself":3845,"unan":3846,"highest":3847,"ends":3848,"factor":3849,"scra":3850,"scared":3851,"helpful":3852,"disused":3853,"resp":3854,"agreement":3855,"parked":3856,"design":3857,"conduct":3858,"events":3859,"voting":3860,"developed":3861,"sweat":3862,"meals":3863,"damage":3864,"closer":3865,"Garland":3866,"immig":3867,"crowd":3868,"Pittsburgh":3869,"pyramid":3870,"##ctober":3871,"alcohol":3872,"An":3873,"Cent":3874,"Lou":3875,"gor":3876,"lat":3877,"lag":3878,"pi":3879,"##oss":3880,"##wor":3881,"##just":3882,"youth":3883,"libr":3884,"##oph":3885,"##ntown":3886,"reh":3887,"alpine":3888,"##ased":3889,"##ongress":3890,"##allen":3891,"##action":3892,"unus":3893,"unemp":3894,"##shire":3895,"courses":3896,"supply":3897,"scale":3898,"apply":3899,"drawn":3900,"electron":3901,"exerc":3902,"advice":3903,"traveling":3904,"roughly":3905,"estab":3906,"sewing":3907,"lodge":3908,"discipline":3909,"Austin":3910,"liberal":3911,"President":3912,"Bl":3913,"Ex":3914,"et":3915,"loose":3916,"sides":3917,"tar":3918,"##ai":3919,"##avan":3920,"##eme":3921,"##gia":3922,"##master":3923,"##stairs":3924,"##icians":3925,"##imately":3926,"cast":3927,"challen":3928,"mand":3929,"##ify":3930,"scheme":3931,"losing":3932,"##bec":3933,"feelings":3934,"hire":3935,"##using":3936,"impressed":3937,"showing":3938,"indian":3939,"president":3940,"grandfather":3941,"medic":3942,"opened":3943,"organized":3944,"practically":3945,"facilities":3946,"constantly":3947,"detail":3948,"depending":3949,"knowledge":3950,"fantastic":3951,"Louis":3952,"lagoon":3953,"unemploy":3954,"At":3955,"Bost":3956,"fem":3957,"##not":3958,"##ublic":3959,"##lie":3960,"##bly":3961,"##NE":3962,"##eage":3963,"wet":3964,"ham":3965,"##orrow":3966,"##uts":3967,"##ley":3968,"##icient":3969,"noise":3970,"##abil":3971,"sale":3972,"saved":3973,"ages":3974,"print":3975,"belt":3976,"##quently":3977,"fifties":3978,"wondered":3979,"Chinese":3980,"repres":3981,"cheer":3982,"earth":3983,"skin":3984,"prescri":3985,"grandpa":3986,"address":3987,"exciting":3988,"assume":3989,"population":3990,"equal":3991,"organization":3992,"voted":3993,"violent":3994,"voice":3995,"finger":3996,"larger":3997,"deduct":3998,"attractive":3999,"tradition":4000,"blacksmith":4001,"downtown":4002,"establish":4003,"Boston":4004,"De":4005,"Mc":4006,"Tw":4007,"ess":4008,"pure":4009,"peace":4010,"rates":4011,"##ville":4012,"##itor":4013,"beech":4014,"##chan":4015,"##alian":4016,"thinks":4017,"tools":4018,"army":4019,"closed":4020,"##rents":4021,"showed":4022,"lessons":4023,"concent":4024,"rocket":4025,"checks":4026,"election":4027,"healthy":4028,"auth":4029,"carrying":4030,"freed":4031,"smoking":4032,"tomorrow":4033,"labor":4034,"shooting":4035,"trips":4036,"Ohio":4037,"pleased":4038,"determ":4039,"##ropri":4040,"kindergarten":4041,"unanim":4042,"unusual":4043,"Bu":4044,"Gra":4045,"gal":4046,"rot":4047,"sme":4048,"tight":4049,"yards":4050,"##ta":4051,"inno":4052,"whose":4053,"##icious":4054,"##ask":4055,"comed":4056,"please":4057,"laid":4058,"cru":4059,"crit":4060,"recent":4061,"mini":4062,"relatives":4063,"plane":4064,"falls":4065,"passing":4066,"expenses":4067,"##ointed":4068,"rule":4069,"##aws":4070,"animal":4071,"Friday":4072,"secretary":4073,"natural":4074,"maintain":4075,"convenient":4076,"##IDS":4077,"weapons":4078,"frustr":4079,"unanimous":4080,"Mond":4081,"aunt":4082,"bom":4083,"mic":4084,"race":4085,"##oons":4086,"##te":4087,"##ients":4088,"##den":4089,"##OW":4090,"##ED":4091,"##oun":4092,"wha":4093,"##sey":4094,"##isa":4095,"##che":4096,"therefore":4097,"heck":4098,"neither":4099,"anyhow":4100,"sunday":4101,"member":4102,"mechan":4103,"comment":4104,"##rief":4105,"##aged":4106,"useful":4107,"straw":4108,"##ache":4109,"##arely":4110,"mileage":4111,"##lington":4112,"barbec":4113,"conditions":4114,"economic":4115,"message":4116,"##ipped":4117,"replace":4118,"senior":4119,"independent":4120,"granite":4121,"circumstances":4122,"represent":4123,"grandparents":4124,"AIDS":4125,"Sum":4126,"Uh":4127,"Wisc":4128,"fat":4129,"gh":4130,"jeans":4131,"ki":4132,"kick":4133,"nope":4134,"rift":4135,"tie":4136,"##uary":4137,"##AD":4138,"welf":4139,"##lement":4140,"ang":4141,"##oping":4142,"fruit":4143,"##amed":4144,"progress":4145,"tabl":4146,"mud":4147,"dies":4148,"##ateg":4149,"##riage":4150,"intell":4151,"loans":4152,"afterwards":4153,"gram":4154,"adop":4155,"advent":4156,"##onsin":4157,"conscious":4158,"sett":4159,"subur":4160,"giraff":4161,"checked":4162,"##etera":4163,"holding":4164,"vacations":4165,"dropped":4166,"modern":4167,"accepted":4168,"automob":4169,"deterrent":4170,"indeed":4171,"mistake":4172,"argument":4173,"##force":4174,"princi":4175,"primarily":4176,"Inst":4177,"Central":4178,"mandatory":4179,"freedom":4180,"Wisconsin":4181,"Day":4182,"pad":4183,"robb":4184,"vict":4185,"##ners":4186,"##kney":4187,"##utions":4188,"wage":4189,"stitch":4190,"orkney":4191,"aside":4192,"chair":4193,"chief":4194,"alto":4195,"master":4196,"downwards":4197,"##olk":4198,"concept":4199,"compar":4200,"farmer":4201,"unif":4202,"perm":4203,"perspect":4204,"cents":4205,"contain":4206,"strug":4207,"##ival":4208,"match":4209,"levels":4210,"parall":4211,"southwest":4212,"skills":4213,"##ursday":4214,"shops":4215,"foods":4216,"beds":4217,"sentencing":4218,"bringing":4219,"lights":4220,"choir":4221,"crossing":4222,"lads":4223,"pieces":4224,"organiz":4225,"pattern":4226,"admit":4227,"demand":4228,"filled":4229,"holidays":4230,"tiny":4231,"risk":4232,"welfare":4233,"Air":4234,"Miss":4235,"Rangers":4236,"Wor":4237,"dust":4238,"dir":4239,"fault":4240,"mouth":4241,"psy":4242,"saturday":4243,"##press":4244,"##IL":4245,"##eah":4246,"##orough":4247,"beer":4248,"beats":4249,"hum":4250,"soap":4251,"##icial":4252,"lift":4253,"##entially":4254,"proced":4255,"taste":4256,"guar":4257,"##ulf":4258,"backyard":4259,"log":4260,"adults":4261,"trave":4262,"blame":4263,"enjoyable":4264,"score":4265,"appropri":4266,"incent":4267,"##iction":4268,"colleges":4269,"instruct":4270,"concert":4271,"english":4272,"trained":4273,"##ields":4274,"crash":4275,"##pared":4276,"terribly":4277,"visited":4278,"nationalization":4279,"housing":4280,"tomatoes":4281,"seriously":4282,"democr":4283,"temper":4284,"activity":4285,"##ergy":4286,"dredging":4287,"vertical":4288,"batter":4289,"conditioning":4290,"minimum":4291,"Japanese":4292,"bicycle":4293,"shillings":4294,"appreciate":4295,"medicine":4296,"Monday":4297,"giraffes":4298,"parallel":4299,"Dis":4300,"Jer":4301,"Saint":4302,"Wh":4303,"Will":4304,"bins":4305,"emb":4306,"gang":4307,"hm":4308,"ken":4309,"ring":4310,"ur":4311,"##iest":4312,"##lant":4313,"##wall":4314,"##bu":4315,"##vest":4316,"##reen":4317,"doors":4318,"sore":4319,"shame":4320,"##iler":4321,"prepared":4322,"schol":4323,"caravan":4324,"unl":4325,"hired":4326,"differently":4327,"lakes":4328,"letting":4329,"recall":4330,"##ushing":4331,"raising":4332,"foreign":4333,"preschool":4334,"hotel":4335,"employee":4336,"severe":4337,"penny":4338,"amazed":4339,"bothers":4340,"joined":4341,"emot":4342,"Arlington":4343,"susp":4344,"balance":4345,"specific":4346,"measure":4347,"daily":4348,"##onald":4349,"border":4350,"casual":4351,"guarant":4352,"August":4353,"Com":4354,"Cad":4355,"Ken":4356,"Master":4357,"Wal":4358,"cu":4359,"emer":4360,"fi":4361,"gaz":4362,"hills":4363,"jour":4364,"kirk":4365,"##ait":4366,"##uate":4367,"##ders":4368,"##rel":4369,"##orney":4370,"inj":4371,"hung":4372,"steal":4373,"stress":4374,"ability":4375,"##roo":4376,"##rise":4377,"##ptions":4378,"flower":4379,"resol":4380,"hundreds":4381,"decisions":4382,"reports":4383,"swing":4384,"##lands":4385,"##phere":4386,"killing":4387,"politicians":4388,"records":4389,"effective":4390,"values":4391,"potatoes":4392,"carpet":4393,"automatic":4394,"detect":4395,"yellow":4396,"##nesota":4397,"Minnesota":4398,"Canada":4399,"southern":4400,"purpose":4401,"bonus":4402,"Honda":4403,"christmas":4404,"Atlant":4405,"psych":4406,"And":4407,"Visa":4408,"gent":4409,"nation":4410,"rural":4411,"##uf":4412,"##lear":4413,"##book":4414,"theory":4415,"##inct":4416,"liver":4417,"##ession":4418,"##cember":4419,"##pped":4420,"divor":4421,"##olis":4422,"##uel":4423,"payments":4424,"letters":4425,"##istics":4426,"curved":4427,"attached":4428,"attorney":4429,"mission":4430,"desk":4431,"driven":4432,"streets":4433,"singing":4434,"employer":4435,"expecting":4436,"Christian":4437,"practical":4438,"opinions":4439,"package":4440,"bucket":4441,"convin":4442,"naturally":4443,"purchase":4444,"songs":4445,"Italian":4446,"Georgia":4447,"##IGH":4448,"lux":4449,"religious":4450,"negative":4451,"tablets":4452,"World":4453,"appropriate":4454,"Congress":4455,"Dem":4456,"John":4457,"aud":4458,"bol":4459,"dental":4460,"host":4461,"named":4462,"rac":4463,"tun":4464,"##let":4465,"##ker":4466,"##gl":4467,"##wood":4468,"##mos":4469,"items":4470,"##uting":4471,"##anuary":4472,"##iment":4473,"##urg":4474,"male":4475,"trim":4476,"tables":4477,"exh":4478,"dig":4479,"bush":4480,"overall":4481,"##cient":4482,"compare":4483,"breaking":4484,"sixth":4485,"youngest":4486,"complicated":4487,"##ference":4488,"excited":4489,"##ERS":4490,"dining":4491,"colors":4492,"##ANC":4493,"technology":4494,"evidence":4495,"bandit":4496,"criminals":4497,"##ALL":4498,"dredger":4499,"violence":4500,"committed":4501,"annoy":4502,"northern":4503,"lawyer":4504,"torn":4505,"clerk":4506,"candid":4507,"ordinary":4508,"library":4509,"Express":4510,"cheerio":4511,"Summer":4512,"Disney":4513,"scholar":4514,"ble":4515,"junk":4516,"math":4517,"mental":4518,"nuc":4519,"option":4520,"ri":4521,"rice":4522,"rules":4523,"sil":4524,"##oe":4525,"##rant":4526,"##lines":4527,"##head":4528,"##vis":4529,"##AM":4530,"##ining":4531,"##inery":4532,"knee":4533,"##ancing":4534,"##arian":4535,"stack":4536,"##ential":4537,"##chester":4538,"sex":4539,"##imp":4540,"whatnot":4541,"##irn":4542,"atmos":4543,"outdo":4544,"wherever":4545,"##oline":4546,"bump":4547,"energy":4548,"prime":4549,"grab":4550,"player":4551,"centers":4552,"central":4553,"highway":4554,"##ansas":4555,"symp":4556,"consist":4557,"walked":4558,"skirt":4559,"engines":4560,"checking":4561,"nurses":4562,"considering":4563,"addition":4564,"shorts":4565,"solve":4566,"regularly":4567,"burning":4568,"legis":4569,"thirds":4570,"fancy":4571,"effects":4572,"article":4573,"pleasure":4574,"antel":4575,"versus":4576,"vegetables":4577,"sharp":4578,"split":4579,"significant":4580,"destro":4581,"rehabil":4582,"author":4583,"perspective":4584,"dirty":4585,"incentive":4586,"Jersey":4587,"gazell":4588,"atmosphere":4589,"rehabilit":4590,"Boy":4591,"CH":4592,"Ro":4593,"Span":4594,"Yeah":4595,"eth":4596,"rom":4597,"ranch":4598,"roles":4599,"wi":4600,"##light":4601,"##laim":4602,"##hod":4603,"##hand":4604,"##hold":4605,"##TS":4606,"##ION":4607,"##ndon":4608,"##ato":4609,"habit":4610,"##orter":4611,"##orms":4612,"stren":4613,"upper":4614,"friday":4615,"mad":4616,"exist":4617,"platf":4618,"pregn":4619,"bull":4620,"manuf":4621,"tends":4622,"talks":4623,"##oses":4624,"throughout":4625,"adjust":4626,"flu":4627,"resour":4628,"ident":4629,"dealt":4630,"classroom":4631,"##azz":4632,"treated":4633,"cuts":4634,"restrict":4635,"southeast":4636,"movement":4637,"mornings":4638,"recycled":4639,"drives":4640,"craw":4641,"neighbors":4642,"bothered":4643,"continu":4644,"hanging":4645,"individuals":4646,"deliver":4647,"##empt":4648,"semester":4649,"safari":4650,"##market":4651,"juries":4652,"Scouts":4653,"volunteer":4654,"birthday":4655,"victim":4656,"William":4657,"legisl":4658,"gazelles":4659,"platform":4660,"manufact":4661,"Jim":4662,"LA":4663,"cle":4664,"cry":4665,"fasc":4666,"lean":4667,"ow":4668,"oun":4669,"pension":4670,"tank":4671,"##ricul":4672,"##ience":4673,"##ique":4674,"##kers":4675,"##here":4676,"##EP":4677,"##AY":4678,"thin":4679,"##lley":4680,"##ica":4681,"aren":4682,"caused":4683,"noose":4684,"##aded":4685,"##adem":4686,"##adium":4687,"previous":4688,"pair":4689,"loves":4690,"unit":4691,"interests":4692,"playground":4693,"elimin":4694,"bless":4695,"badly":4696,"curious":4697,"resist":4698,"impact":4699,"ward":4700,"draft":4701,"phil":4702,"attend":4703,"extended":4704,"midw":4705,"expert":4706,"businesses":4707,"empty":4708,"grades":4709,"machinery":4710,"farmers":4711,"##uesday":4712,"##gging":4713,"profit":4714,"breakf":4715,"gasoline":4716,"practice":4717,"baths":4718,"histor":4719,"increased":4720,"participate":4721,"arrange":4722,"convicted":4723,"Germany":4724,"eggs":4725,"outlaws":4726,"nicer":4727,"elementary":4728,"concentr":4729,"barbecue":4730,"ghost":4731,"settled":4732,"emerg":4733,"Democr":4734,"scholarship":4735,"nuclear":4736,"Cath":4737,"For":4738,"Se":4739,"fab":4740,"pants":4741,"pushing":4742,"sight":4743,"sack":4744,"tied":4745,"##gon":4746,"##prise":4747,"##IE":4748,"##eab":4749,"##eable":4750,"##enance":4751,"wast":4752,"dozen":4753,"cairn":4754,"novel":4755,"chore":4756,"prove":4757,"##ifts":4758,"london":4759,"parties":4760,"tells":4761,"series":4762,"##grad":4763,"decent":4764,"##ucky":4765,"educated":4766,"involve":4767,"daughters":4768,"media":4769,"rented":4770,"strongly":4771,"seaf":4772,"temple":4773,"automatically":4774,"encourage":4775,"source":4776,"institution":4777,"Coll":4778,"target":4779,"##laimed":4780,"fascin":4781,"breakfast":4782,"DANC":4783,"May":4784,"SI":4785,"SH":4786,"cup":4787,"du":4788,"den":4789,"fear":4790,"rat":4791,"tear":4792,"tub":4793,"ult":4794,"##nut":4795,"##rig":4796,"##da":4797,"##cul":4798,"##ples":4799,"##mod":4800,"##AC":4801,"thorough":4802,"ther":4803,"##arm":4804,"lie":4805,"butter":4806,"##isons":4807,"##illac":4808,"tall":4809,"##ung":4810,"clim":4811,"deer":4812,"deck":4813,"overnight":4814,"brick":4815,"foc":4816,"sloping":4817,"pupp":4818,"facts":4819,"monthly":4820,"sitter":4821,"##ugs":4822,"catfish":4823,"stays":4824,"##iber":4825,"##ubb":4826,"salt":4827,"added":4828,"sending":4829,"murders":4830,"development":4831,"projects":4832,"applied":4833,"immediate":4834,"materials":4835,"skiing":4836,"satisfied":4837,"network":4838,"including":4839,"apache":4840,"chemicals":4841,"license":4842,"instrument":4843,"##OLV":4844,"flexible":4845,"dotted":4846,"##check":4847,"adventure":4848,"Cadillac":4849,"seafood":4850,"Br":4851,"Ca":4852,"Mart":4853,"Tr":4854,"categ":4855,"dumb":4856,"mow":4857,"na":4858,"pil":4859,"##sc":4860,"##cast":4861,"##put":4862,"##UT":4863,"##burgh":4864,"##zz":4865,"##vas":4866,"##vable":4867,"##each":4868,"weigh":4869,"##anks":4870,"ate":4871,"anytime":4872,"suits":4873,"uses":4874,"##ership":4875,"pock":4876,"silly":4877,"brings":4878,"grant":4879,"enjoying":4880,"scot":4881,"ideal":4882,"setting":4883,"regul":4884,"awfully":4885,"figures":4886,"lighthouse":4887,"choices":4888,"wearing":4889,"discover":4890,"employed":4891,"assum":4892,"##ruments":4893,"transfer":4894,"trucks":4895,"policeman":4896,"model":4897,"planted":4898,"estate":4899,"recipes":4900,"washed":4901,"approach":4902,"sharing":4903,"maintenance":4904,"##egal":4905,"cousins":4906,"teenagers":4907,"assistant":4908,"revol":4909,"structure":4910,"frame":4911,"birds":4912,"stewards":4913,"Instruments":4914,"uniform":4915,"Bar":4916,"Count":4917,"Den":4918,"Pan":4919,"WOLV":4920,"amb":4921,"dar":4922,"dirt":4923,"fee":4924,"ge":4925,"jack":4926,"lect":4927,"mer":4928,"mort":4929,"oven":4930,"rh":4931,"sir":4932,"sons":4933,"ut":4934,"##ember":4935,"##ky":4936,"##IV":4937,"##itute":4938,"storm":4939,"abuse":4940,"##urd":4941,"shed":4942,"cass":4943,"##ctions":4944,"chat":4945,"tast":4946,"##olic":4947,"prisons":4948,"handic":4949,"paycheck":4950,"univers":4951,"crack":4952,"adult":4953,"slip":4954,"bottle":4955,"results":4956,"impro":4957,"crafts":4958,"method":4959,"##dding":4960,"produce":4961,"tempor":4962,"annual":4963,"stockade":4964,"software":4965,"mistakes":4966,"entertainment":4967,"chestnut":4968,"tuition":4969,"inspector":4970,"administr":4971,"Indiana":4972,"Russia":4973,"frightening":4974,"obstacle":4975,"immigration":4976,"female":4977,"prescription":4978,"essentially":4979,"Grand":4980,"innocent":4981,"emotion":4982,"kirkwall":4983,"Atlanta":4984,"Williams":4985,"WOLVES":4986,"Bra":4987,"IN":4988,"Mom":4989,"West":4990,"aid":4991,"ath":4992,"cyc":4993,"ment":4994,"signed":4995,"##aver":4996,"##pher":4997,"item":4998,"bend":4999,"##anced":5000,"stood":5001,"##ches":5002,"seats":5003,"neck":5004,"##illed":5005,"tapes":5006,"##ortion":5007,"backwards":5008,"compound":5009,"breaks":5010,"shouldn":5011,"pays":5012,"unf":5013,"reclaimed":5014,"suppl":5015,"highly":5016,"flowing":5017,"disag":5018,"serving":5019,"##tens":5020,"fully":5021,"attack":5022,"buildings":5023,"##INE":5024,"friendly":5025,"pulling":5026,"fortnight":5027,"terrif":5028,"freez":5029,"judges":5030,"recording":5031,"volc":5032,"patter":5033,"potential":5034,"ships":5035,"sweet":5036,"feeding":5037,"tourist":5038,"ticket":5039,"##nesday":5040,"receive":5041,"approx":5042,"increasing":5043,"spoke":5044,"relatively":5045,"unemployment":5046,"smell":5047,"luxury":5048,"strength":5049,"pregnant":5050,"Force":5051,"##eabouts":5052,"Dad":5053,"Ku":5054,"Mer":5055,"Mass":5056,"beans":5057,"cetera":5058,"gates":5059,"jog":5060,"jazz":5061,"pour":5062,"vast":5063,"york":5064,"##af":5065,"##tes":5066,"##pool":5067,"##UR":5068,"##TER":5069,"##yn":5070,"##IR":5071,"##NING":5072,"##atter":5073,"##atures":5074,"##eams":5075,"##etic":5076,"##chet":5077,"justice":5078,"analy":5079,"orient":5080,"shirt":5081,"rebu":5082,"ash":5083,"nowhere":5084,"truly":5085,"##pper":5086,"##igan":5087,"##itted":5088,"arth":5089,"prepar":5090,"bugs":5091,"offered":5092,"pond":5093,"surely":5094,"throwing":5095,"##osoph":5096,"amer":5097,"##athy":5098,"publ":5099,"scen":5100,"result":5101,"##aret":5102,"decor":5103,"##ensive":5104,"##ucing":5105,"musical":5106,"earn":5107,"parks":5108,"accur":5109,"accord":5110,"planting":5111,"planned":5112,"minds":5113,"aval":5114,"gradually":5115,"engineers":5116,"spray":5117,"excl":5118,"riding":5119,"Union":5120,"views":5121,"golden":5122,"currently":5123,"routine":5124,"construct":5125,"possibility":5126,"sleeping":5127,"##goti":5128,"gallon":5129,"Minn":5130,"STAR":5131,"vehicle":5132,"TIME":5133,"Phil":5134,"repeat":5135,"shrimp":5136,"diesel":5137,"intellig":5138,"altogether":5139,"liverpool":5140,"antelopes":5141,"Ara":5142,"Gulf":5143,"June":5144,"Sy":5145,"gy":5146,"gather":5147,"german":5148,"hitting":5149,"ign":5150,"jus":5151,"keen":5152,"pic":5153,"pir":5154,"weap":5155,"##ris":5156,"##lic":5157,"##ban":5158,"theater":5159,"##ero":5160,"ton":5161,"doc":5162,"##etro":5163,"##etts":5164,"##icing":5165,"steel":5166,"forces":5167,"anch":5168,"##road":5169,"negoti":5170,"outra":5171,"tract":5172,"goods":5173,"plain":5174,"##riever":5175,"##iels":5176,"prem":5177,"complex":5178,"needle":5179,"span":5180,"##usetts":5181,"league":5182,"owner":5183,"finishing":5184,"##achusetts":5185,"thirties":5186,"##ucr":5187,"##issions":5188,"repairs":5189,"sets":5190,"holy":5191,"campus":5192,"drivers":5193,"experiences":5194,"enter":5195,"efficient":5196,"raining":5197,"transl":5198,"dressed":5199,"processing":5200,"##ENTY":5201,"##anche":5202,"weights":5203,"opera":5204,"facility":5205,"dutch":5206,"holes":5207,"preference":5208,"copy":5209,"received":5210,"honestly":5211,"portion":5212,"TWENTY":5213,"welsh":5214,"coffin":5215,"registered":5216,"subscribe":5217,"gorgeous":5218,"established":5219,"beeches":5220,"comedy":5221,"microw":5222,"organizations":5223,"philosoph":5224,"##riger":5225,"volcano":5226,"approximately":5227,"avalanche":5228,"weapon":5229,"As":5230,"Broo":5231,"Fort":5232,"bang":5233,"cow":5234,"fiction":5235,"obl":5236,"pal":5237,"peak":5238,"yach":5239,"##ael":5240,"##seas":5241,"##uits":5242,"##wait":5243,"##bour":5244,"##EA":5245,"##vant":5246,"thumb":5247,"threw":5248,"##inburgh":5249,"toler":5250,"##str":5251,"##utor":5252,"##iture":5253,"stadium":5254,"##verse":5255,"##oper":5256,"review":5257,"##ras":5258,"trig":5259,"##pping":5260,"extens":5261,"plate":5262,"sail":5263,"arms":5264,"aggra":5265,"theirs":5266,"conse":5267,"text":5268,"thrown":5269,"acqu":5270,"greatest":5271,"eighties":5272,"slab":5273,"##emon":5274,"screw":5275,"marks":5276,"edinburgh":5277,"appear":5278,"appoint":5279,"relate":5280,"expand":5281,"expense":5282,"musc":5283,"statement":5284,"designed":5285,"seconds":5286,"elected":5287,"sentenced":5288,"forties":5289,"freeze":5290,"necessity":5291,"burea":5292,"behav":5293,"brakes":5294,"clubs":5295,"production":5296,"clearly":5297,"refriger":5298,"Thursday":5299,"##eapolis":5300,"supervis":5301,"articles":5302,"depos":5303,"official":5304,"##ipping":5305,"sandy":5306,"whereabouts":5307,"France":5308,"scream":5309,"literally":5310,"motivation":5311,"motivated":5312,"recognize":5313,"disappointed":5314,"verdict":5315,"citizen":5316,"flagship":5317,"Ange":5318,"cruise":5319,"gentle":5320,"##IGHT":5321,"DANCES":5322,"County":5323,"disagree":5324,"Kuwait":5325,"Massachusetts":5326,"Minneapolis":5327,"aggrav":5328,"Iow":5329,"January":5330,"Lord":5331,"Pr":5332,"Red":5333,"Rob":5334,"bound":5335,"cig":5336,"code":5337,"dance":5338,"dried":5339,"file":5340,"lack":5341,"rise":5342,"virt":5343,"##ums":5344,"##cer":5345,"##come":5346,"##has":5347,"##go":5348,"##LL":5349,"##LD":5350,"tooth":5351,"hass":5352,"##omet":5353,"##itness":5354,"beef":5355,"washing":5356,"##icate":5357,"##aco":5358,"causing":5359,"##rog":5360,"##aud":5361,"##rass":5362,"pros":5363,"tail":5364,"muse":5365,"mult":5366,"guide":5367,"probation":5368,"##astics":5369,"##rial":5370,"##riend":5371,"prep":5372,"quote":5373,"offices":5374,"poison":5375,"##oyal":5376,"loss":5377,"##ertime":5378,"elm":5379,"factors":5380,"flight":5381,"imposs":5382,"deficit":5383,"understanding":5384,"classic":5385,"studying":5386,"educational":5387,"northwest":5388,"falling":5389,"cooked":5390,"fortunately":5391,"chocol":5392,"employment":5393,"landf":5394,"catching":5395,"rush":5396,"ruins":5397,"sooner":5398,"crevas":5399,"professor":5400,"lowest":5401,"termin":5402,"##aker":5403,"trials":5404,"hospitals":5405,"financially":5406,"film":5407,"tournam":5408,"uncle":5409,"suffolk":5410,"rapids":5411,"treatment":5412,"corporation":5413,"illegal":5414,"combination":5415,"debate":5416,"divided":5417,"dishes":5418,"##offs":5419,"introduced":5420,"bushes":5421,"oblig":5422,"yacht":5423,"Iowa":5424,"crevasse":5425,"Gold":5426,"Los":5427,"October":5428,"Pat":5429,"Rep":5430,"Rale":5431,"Sam":5432,"ast":5433,"dom":5434,"hers":5435,"lemon":5436,"rif":5437,"rib":5438,"sna":5439,"##eve":5440,"##iers":5441,"##gage":5442,"##atin":5443,"wagon":5444,"##enth":5445,"height":5446,"chop":5447,"alter":5448,"sugar":5449,"cance":5450,"trick":5451,"guard":5452,"##rif":5453,"agency":5454,"sorted":5455,"loch":5456,"loop":5457,"brig":5458,"homework":5459,"perman":5460,"thoughts":5461,"greater":5462,"household":5463,"function":5464,"flood":5465,"scare":5466,"drain":5467,"drast":5468,"Char":5469,"trend":5470,"deserve":5471,"electr":5472,"stret":5473,"controlled":5474,"followed":5475,"advance":5476,"visiting":5477,"occup":5478,"heaven":5479,"seasons":5480,"collection":5481,"seventh":5482,"formal":5483,"##REET":5484,"##avid":5485,"jumped":5486,"##ette":5487,"scratch":5488,"districts":5489,"investment":5490,"culture":5491,"improvement":5492,"summertime":5493,"describe":5494,"cousin":5495,"vehicles":5496,"accommod":5497,"Michigan":5498,"##OOD":5499,"survive":5500,"electronic":5501,"challenge":5502,"missionary":5503,"resistance":5504,"thoroughly":5505,"pocket":5506,"patterns":5507,"cigaret":5508,"impossible":5509,"Raleigh":5510,"Af":5511,"Con":5512,"Detro":5513,"HOM":5514,"July":5515,"Kent":5516,"WOM":5517,"bow":5518,"dess":5519,"fash":5520,"kil":5521,"wid":5522,"wine":5523,"wore":5524,"##ege":5525,"##ridge":5526,"##lict":5527,"##cies":5528,"##gain":5529,"##gling":5530,"##mate":5531,"thi":5532,"##inth":5533,"##incol":5534,"##reath":5535,"##omen":5536,"##othing":5537,"began":5538,"##arrow":5539,"stars":5540,"forms":5541,"cake":5542,"causes":5543,"##inder":5544,"chol":5545,"diet":5546,"##eeper":5547,"cleared":5548,"compens":5549,"##bell":5550,"##belie":5551,"handgun":5552,"##osk":5553,"unbelie":5554,"academ":5555,"perce":5556,"blowing":5557,"##ires":5558,"enjoys":5559,"flour":5560,"marriage":5561,"reli":5562,"rape":5563,"conserv":5564,"understood":5565,"reput":5566,"generations":5567,"earning":5568,"esc":5569,"parole":5570,"region":5571,"stands":5572,"glas":5573,"listened":5574,"location":5575,"##nah":5576,"rains":5577,"remark":5578,"##apel":5579,"charged":5580,"##rete":5581,"unfortunate":5582,"##ashiels":5583,"officers":5584,"Franc":5585,"channels":5586,"uncom":5587,"corporate":5588,"tube":5589,"STREET":5590,"troops":5591,"teenager":5592,"alternative":5593,"litter":5594,"international":5595,"accompl":5596,"TIMES":5597,"humidity":5598,"qualified":5599,"apprentice":5600,"respond":5601,"latest":5602,"details":5603,"December":5604,"galashiels":5605,"frustrating":5606,"kiosk":5607,"grammar":5608,"battery":5609,"guarantee":5610,"Spanish":5611,"emergency":5612,"Catholic":5613,"fascinating":5614,"outrageous":5615,"microwave":5616,"Republic":5617,"Detroit":5618,"Kentucky":5619,"dessert":5620,"Haw":5621,"JOUR":5622,"Lubb":5623,"Latin":5624,"Lincol":5625,"Toy":5626,"Tech":5627,"Worth":5628,"bowl":5629,"brief":5630,"cope":5631,"dent":5632,"dun":5633,"john":5634,"las":5635,"mir":5636,"options":5637,"por":5638,"ray":5639,"search":5640,"und":5641,"wound":5642,"wealth":5643,"##of":5644,"##aust":5645,"##ray":5646,"##gent":5647,"##water":5648,"##OP":5649,"##EK":5650,"##IF":5651,"##AG":5652,"##Donald":5653,"##stack":5654,"bell":5655,"##ancy":5656,"soil":5657,"button":5658,"ste":5659,"sten":5660,"forge":5661,"ancient":5662,"shirts":5663,"upstairs":5664,"##rap":5665,"fry":5666,"max":5667,"savan":5668,"##adian":5669,"arts":5670,"argue":5671,"conference":5672,"hasn":5673,"bright":5674,"acid":5675,"weekly":5676,"courts":5677,"harbour":5678,"blank":5679,"factory":5680,"flip":5681,"final":5682,"minist":5683,"##ressing":5684,"shower":5685,"sounded":5686,"indo":5687,"Church":5688,"lesser":5689,"bake":5690,"campa":5691,"parking":5692,"standards":5693,"northeast":5694,"emphas":5695,"##rica":5696,"favorites":5697,"rainy":5698,"communication":5699,"millions":5700,"distrib":5701,"luckily":5702,"remind":5703,"remain":5704,"auto":5705,"ladies":5706,"legs":5707,"heav":5708,"##esterol":5709,"hurting":5710,"##berries":5711,"create":5712,"walls":5713,"reduce":5714,"laying":5715,"##ARD":5716,"pushed":5717,"surprising":5718,"anti":5719,"requirements":5720,"Europ":5721,"borrow":5722,"perfectly":5723,"presented":5724,"blocks":5725,"contribute":5726,"fingers":5727,"haystack":5728,"photography":5729,"March":5730,"relaxing":5731,"McDonald":5732,"procedure":5733,"destroy":5734,"oriented":5735,"picnic":5736,"pirate":5737,"Angeles":5738,"hassle":5739,"chocolate":5740,"cholesterol":5741,"Lubbock":5742,"savannah":5743,"Bible":5744,"Easter":5745,"Fall":5746,"RO":5747,"Tom":5748,"awards":5749,"breath":5750,"cert":5751,"cell":5752,"dimin":5753,"dancing":5754,"fet":5755,"fans":5756,"fuel":5757,"gen":5758,"hat":5759,"mi":5760,"native":5761,"pow":5762,"task":5763,"##sis":5764,"##iant":5765,"##co":5766,"##he":5767,"##gow":5768,"##gery":5769,"##pence":5770,"##UM":5771,"##bits":5772,"##vey":5773,"knit":5774,"soph":5775,"sto":5776,"##ching":5777,"##chie":5778,"##thes":5779,"heath":5780,"nose":5781,"##ili":5782,"twent":5783,"mel":5784,"plastics":5785,"coat":5786,"agreed":5787,"clothing":5788,"undergrad":5789,"proud":5790,"handed":5791,"units":5792,"dream":5793,"graph":5794,"gray":5795,"##izer":5796,"screen":5797,"marvel":5798,"disease":5799,"##umably":5800,"Che":5801,"##iana":5802,"generate":5803,"accidents":5804,"reasonably":5805,"bargain":5806,"foreman":5807,"presumably":5808,"difficulty":5809,"totem":5810,"budgeting":5811,"supporting":5812,"signs":5813,"signal":5814,"##AND":5815,"facing":5816,"avoiding":5817,"deliber":5818,"##REK":5819,"depth":5820,"discussion":5821,"##OUS":5822,"##isco":5823,"railways":5824,"affected":5825,"slowly":5826,"july":5827,"version":5828,"voluntary":5829,"forgotten":5830,"wheatf":5831,"settlement":5832,"ceiling":5833,"crochet":5834,"citizens":5835,"cabin":5836,"occurred":5837,"pipe":5838,"exercising":5839,"bomb":5840,"princip":5841,"containers":5842,"embar":5843,"hmm":5844,"silver":5845,"discovered":5846,"Denver":5847,"according":5848,"appointment":5849,"fashion":5850,"glasgow":5851,"Francisco":5852,"campaign":5853,"European":5854,"wheatfields":5855,"Am":5856,"El":5857,"Har":5858,"Nor":5859,"Oak":5860,"Sec":5861,"TREK":5862,"You":5863,"boo":5864,"dim":5865,"led":5866,"lump":5867,"ni":5868,"nerv":5869,"ox":5870,"purs":5871,"royal":5872,"sac":5873,"tit":5874,"tack":5875,"voc":5876,"witness":5877,"##lo":5878,"##leans":5879,"##dam":5880,"##TLE":5881,"##HER":5882,"##owe":5883,"##encies":5884,"haul":5885,"inner":5886,"##stery":5887,"##state":5888,"##sec":5889,"stairs":5890,"##isher":5891,"sel":5892,"##alog":5893,"sha":5894,"outs":5895,"chip":5896,"##ested":5897,"trunk":5898,"usual":5899,"##ppers":5900,"gully":5901,"sailing":5902,"##ulous":5903,"##adel":5904,"manned":5905,"overseas":5906,"spaces":5907,"grams":5908,"criter":5909,"harm":5910,"harvest":5911,"blind":5912,"blast":5913,"scar":5914,"warning":5915,"Texan":5916,"relief":5917,"stops":5918,"concrete":5919,"##phia":5920,"##ibal":5921,"towns":5922,"##pril":5923,"circuit":5924,"##ohns":5925,"solicit":5926,"subjects":5927,"crest":5928,"collected":5929,"counsel":5930,"acceptable":5931,"##ONE":5932,"conflict":5933,"physically":5934,"quarterback":5935,"closet":5936,"copper":5937,"scrub":5938,"entirely":5939,"groceries":5940,"purchased":5941,"Springs":5942,"suddenly":5943,"aspects":5944,"statistics":5945,"dispos":5946,"apprentices":5947,"Orleans":5948,"furniture":5949,"conductors":5950,"traditional":5951,"suburb":5952,"automobile":5953,"suspense":5954,"convinced":5955,"ounce":5956,"fabulous":5957,"category":5958,"accurate":5959,"Arab":5960,"virtually":5961,"prepare":5962,"cigarettes":5963,"unbelievable":5964,"nervous":5965,"##adelphia":5966,"Cost":5967,"Creek":5968,"High":5969,"National":5970,"Per":5971,"Rea":5972,"aim":5973,"bond":5974,"dorm":5975,"hens":5976,"oak":5977,"october":5978,"pit":5979,"rarely":5980,"sink":5981,"tune":5982,"vet":5983,"##umer":5984,"##cean":5985,"##gues":5986,"##well":5987,"##mun":5988,"##CE":5989,"##feter":5990,"##RA":5991,"tons":5992,"weeds":5993,"beating":5994,"golly":5995,"lion":5996,"stom":5997,"reached":5998,"##uries":5999,"shunt":6000,"camb":6001,"cared":6002,"mob":6003,"asleep":6004,"chapel":6005,"mall":6006,"cancer":6007,"worksh":6008,"sheet":6009,"conver":6010,"teeth":6011,"evenings":6012,"brush":6013,"spa":6014,"spir":6015,"newer":6016,"farther":6017,"unr":6018,"cris":6019,"##usion":6020,"personality":6021,"impression":6022,"teaches":6023,"expos":6024,"exposed":6025,"defend":6026,"consult":6027,"consumer":6028,"learnt":6029,"##uction":6030,"camped":6031,"roommate":6032,"elections":6033,"amounts":6034,"surprise":6035,"surgery":6036,"##nae":6037,"covers":6038,"gardens":6039,"communities":6040,"woods":6041,"basement":6042,"farmed":6043,"remo":6044,"volts":6045,"patients":6046,"collecting":6047,"seagu":6048,"delicious":6049,"discussed":6050,"include":6051,"##etti":6052,"characters":6053,"burned":6054,"corporations":6055,"competition":6056,"transportation":6057,"hyd":6058,"coaches":6059,"administration":6060,"memory":6061,"apartments":6062,"customer":6063,"association":6064,"massive":6065,"Black":6066,"journ":6067,"detective":6068,"hostel":6069,"resources":6070,"clef":6071,"puppy":6072,"Panama":6073,"Philadelphia":6074,"gym":6075,"philosophy":6076,"bureaucr":6077,"museum":6078,"Golden":6079,"domest":6080,"Hawai":6081,"Lincoln":6082,"Toyota":6083,"marvelous":6084,"Chevy":6085,"##ohnson":6086,"cambridge":6087,"\",":6088,"But":6089,"Cont":6090,"Dak":6091,"MOR":6092,"bin":6093,"bored":6094,"barely":6095,"cough":6096,"cact":6097,"dying":6098,"fle":6099,"gear":6100,"okey":6101,"pip":6102,"rating":6103,"tents":6104,"##apt":6105,"##und":6106,"##wr":6107,"##mor":6108,"##TR":6109,"##zer":6110,"##NAL":6111,"##ford":6112,"##inter":6113,"##enn":6114,"##enomen":6115,"##stowe":6116,"##anes":6117,"onions":6118,"##semb":6119,"goal":6120,"##kee":6121,"##ican":6122,"stere":6123,"steak":6124,"seld":6125,"shad":6126,"mystery":6127,"chose":6128,"treas":6129,"dip":6130,"##igs":6131,"depart":6132,"realistic":6133,"##eless":6134,"farms":6135,"drunk":6136,"topics":6137,"##usher":6138,"counter":6139,"##eased":6140,"##aped":6141,"fail":6142,"scene":6143,"##quar":6144,"sits":6145,"string":6146,"dram":6147,"phenomen":6148,"stopping":6149,"extinct":6150,"fees":6151,"standpoint":6152,"experiment":6153,"obs":6154,"##ixstowe":6155,"craft":6156,"sentences":6157,"banks":6158,"adds":6159,"cleaned":6160,"felixstowe":6161,"worthwhile":6162,"transm":6163,"positions":6164,"burden":6165,"dressing":6166,"limits":6167,"operated":6168,"industrial":6169,"pleasant":6170,"affects":6171,"opportunities":6172,"trolley":6173,"sources":6174,"suggested":6175,"execut":6176,"Michael":6177,"coffee":6178,"##OOK":6179,"Louisiana":6180,"blacksmiths":6181,"Two":6182,"temperature":6183,"exhaust":6184,"involvement":6185,"focus":6186,"improved":6187,"terrific":6188,"rebuild":6189,"construction":6190,"ignore":6191,"refrigerator":6192,"brigade":6193,"electrical":6194,"Africa":6195,"HOME":6196,"conservative":6197,"JOURNAL":6198,"stenness":6199,"principal":6200,"criteria":6201,"##feteria":6202,"Hawaii":6203,"Bay":6204,"Du":6205,"Jew":6206,"Johnson":6207,"Lew":6208,"Mac":6209,"MIS":6210,"NIGHT":6211,"Old":6212,"Pro":6213,"Sw":6214,"Saud":6215,"TO":6216,"hated":6217,"king":6218,"link":6219,"mut":6220,"nations":6221,"nuts":6222,"pier":6223,"sle":6224,"##olly":6225,"##nch":6226,"##ka":6227,"##hib":6228,"##gment":6229,"##met":6230,"##BLE":6231,"##inc":6232,"##iner":6233,"##reg":6234,"wedding":6235,"##stand":6236,"##omp":6237,"wake":6238,"butt":6239,"isol":6240,"stir":6241,"stro":6242,"stove":6243,"sticking":6244,"shove":6245,"alb":6246,"peers":6247,"prosec":6248,"trump":6249,"##abama":6250,"##ouri":6251,"arrest":6252,"prec":6253,"reality":6254,"lob":6255,"brit":6256,"needing":6257,"needham":6258,"partly":6259,"pride":6260,"spots":6261,"differences":6262,"interp":6263,"##ints":6264,"chances":6265,"drill":6266,"acres":6267,"fond":6268,"eighth":6269,"hardest":6270,"finance":6271,"residents":6272,"leather":6273,"##graph":6274,"warran":6275,"drag":6276,"China":6277,"pickup":6278,"funds":6279,"eastern":6280,"##ception":6281,"sky":6282,"skim":6283,"barrel":6284,"secondary":6285,"girlf":6286,"##cedes":6287,"firemen":6288,"metals":6289,"mainland":6290,"consideration":6291,"winds":6292,"opening":6293,"crossed":6294,"employers":6295,"faster":6296,"charges":6297,"periods":6298,"##berry":6299,"wallpaper":6300,"##grown":6301,"frequently":6302,"##akers":6303,"##ological":6304,"fixing":6305,"operate":6306,"provided":6307,"providing":6308,"##ART":6309,"buckets":6310,"dredge":6311,"reported":6312,"bankrupt":6313,"jumping":6314,"softball":6315,"funding":6316,"purchas":6317,"spoiled":6318,"Alabama":6319,"bloom":6320,"laughed":6321,"flying":6322,"irrit":6323,"lifting":6324,"advertise":6325,"instruments":6326,"obstacles":6327,"adopt":6328,"Missouri":6329,"stealing":6330,"divorced":6331,"rehabilitation":6332,"roman":6333,"##EPING":6334,"eliminate":6335,"mortgage":6336,"temporary":6337,"behavior":6338,"deposit":6339,"reputation":6340,"diminished":6341,"embarrass":6342,"sacrif":6343,"Reagan":6344,"stomach":6345,"exposure":6346,"Dakota":6347,"MORNING":6348,"cactus":6349,"seldom":6350,"Lewis":6351,"warranty":6352,"App":6353,"Be":6354,"Gal":6355,"Iran":6356,"James":6357,"Maver":6358,"No":6359,"Na":6360,"Ori":6361,"Sch":6362,"Tur":6363,"Wed":6364,"breat":6365,"drew":6366,"domin":6367,"fert":6368,"french":6369,"gap":6370,"honey":6371,"hits":6372,"lying":6373,"narrow":6374,"ocean":6375,"pink":6376,"punch":6377,"rare":6378,"rang":6379,"##iqu":6380,"##kins":6381,"##giving":6382,"##pay":6383,"##yle":6384,"##vals":6385,"##inated":6386,"toil":6387,"weed":6388,"whis":6389,"##omness":6390,"knees":6391,"##iders":6392,"##ician":6393,"wells":6394,"seed":6395,"whatso":6396,"orc":6397,"heating":6398,"##oped":6399,"capt":6400,"moon":6401,"##amps":6402,"##illas":6403,"trace":6404,"worker":6405,"workforce":6406,"downstairs":6407,"##aine":6408,"tool":6409,"##rian":6410,"pred":6411,"actor":6412,"pages":6413,"mayor":6414,"carb":6415,"talent":6416,"intervals":6417,"root":6418,"##intend":6419,"unique":6420,"##izz":6421,"spect":6422,"owners":6423,"slap":6424,"slates":6425,"blown":6426,"boards":6427,"stromness":6428,"implement":6429,"decl":6430,"command":6431,"commission":6432,"taxpay":6433,"phase":6434,"express":6435,"lists":6436,"eaten":6437,"programming":6438,"crab":6439,"##fortable":6440,"propos":6441,"pulley":6442,"concerns":6443,"landsc":6444,"politically":6445,"informed":6446,"graduating":6447,"policemen":6448,"creative":6449,"answering":6450,"votes":6451,"evac":6452,"protest":6453,"reporting":6454,"films":6455,"protected":6456,"arguments":6457,"chemist":6458,"vegetable":6459,"specif":6460,"participating":6461,"fella":6462,"docks":6463,"knocked":6464,"divide":6465,"commercials":6466,"summers":6467,"capable":6468,"hooked":6469,"purposes":6470,"amongst":6471,"customers":6472,"referred":6473,"initi":6474,"electronics":6475,"critical":6476,"angles":6477,"automobiles":6478,"manufacturing":6479,"concentrate":6480,"College":6481,"pilot":6482,"granted":6483,"scotland":6484,"assumed":6485,"unfair":6486,"anchor":6487,"slabs":6488,"uncomfortable":6489,"twenties":6490,"undergraduate":6491,"domestic":6492,"departments":6493,"breathing":6494,"fertil":6495,"whatsoever":6496,"BR":6497,"Gener":6498,"His":6499,"Hamp":6500,"HOUS":6501,"Ry":6502,"Sal":6503,"Sher":6504,"Sept":6505,"School":6506,"Tar":6507,"Tuesday":6508,"WOR":6509,"achie":6510,"bars":6511,"cod":6512,"ears":6513,"fool":6514,"grief":6515,"hiring":6516,"mal":6517,"mild":6518,"nast":6519,"pist":6520,"rust":6521,"ugh":6522,"wives":6523,"##ox":6524,"##lest":6525,"##care":6526,"##pack":6527,"##xious":6528,"##ino":6529,"##inting":6530,"##erves":6531,"##orial":6532,"inn":6533,"input":6534,"##stone":6535,"##omas":6536,"##itar":6537,"wales":6538,"##see":6539,"##lection":6540,"socc":6541,"stony":6542,"abo":6543,"orch":6544,"cave":6545,"cafeteria":6546,"sue":6547,"suck":6548,"peed":6549,"prohib":6550,"##estin":6551,"##estone":6552,"tries":6553,"meaning":6554,"shell":6555,"sake":6556,"cooper":6557,"predict":6558,"agricul":6559,"cloud":6560,"enth":6561,"##kings":6562,"overc":6563,"overgrown":6564,"##cience":6565,"##rys":6566,"couples":6567,"siz":6568,"handled":6569,"roast":6570,"roots":6571,"##erto":6572,"acre":6573,"crust":6574,"famous":6575,"grill":6576,"careers":6577,"pup":6578,"personnel":6579,"smog":6580,"failed":6581,"content":6582,"resent":6583,"syn":6584,"Chrys":6585,"lesson":6586,"install":6587,"dealer":6588,"dealers":6589,"baking":6590,"directions":6591,"skirts":6592,"survey":6593,"quarries":6594,"addict":6595,"communications":6596,"hopper":6597,"woodlands":6598,"producing":6599,"judicial":6600,"quicker":6601,"##amese":6602,"dresses":6603,"typically":6604,"signature":6605,"hurry":6606,"charging":6607,"created":6608,"brain":6609,"joke":6610,"worrying":6611,"answers":6612,"sticks":6613,"operation":6614,"potato":6615,"The":6616,"duties":6617,"Ark":6618,"turkey":6619,"preferred":6620,"accounts":6621,"soldiers":6622,"requires":6623,"bakers":6624,"videos":6625,"motorc":6626,"wires":6627,"loads":6628,"complaints":6629,"cartoons":6630,"Clar":6631,"largest":6632,"satisfaction":6633,"bulb":6634,"strictly":6635,"performance":6636,"substitute":6637,"hammer":6638,"determine":6639,"struggle":6640,"instructor":6641,"democracy":6642,"candidates":6643,"blew":6644,"outdoor":6645,"wasting":6646,"emotional":6647,"Mercedes":6648,"preparing":6649,"intelligent":6650,"supervisor":6651,"permanent":6652,"accommodation":6653,"dunno":6654,"wealthy":6655,"harbourmaster":6656,"spaceship":6657,"crisis":6658,"journal":6659,"Jewish":6660,"Saudi":6661,"Wednesday":6662,"Hampshire":6663,"soccer":6664,"agricult":6665,"..":6666,"Dan":6667,"Dod":6668,"MIN":6669,"Niss":6670,"RE":6671,"Sears":6672,"Word":6673,"cure":6674,"cuc":6675,"croc":6676,"dough":6677,"fal":6678,"hut":6679,"lord":6680,"ninth":6681,"pence":6682,"ren":6683,"rab":6684,"zero":6685,"##tain":6686,"##iat":6687,"##under":6688,"##backs":6689,"thro":6690,"##att":6691,"##llen":6692,"hamb":6693,"##itated":6694,"##itution":6695,"socially":6696,"reaction":6697,"sept":6698,"reverse":6699,"assemb":6700,"##ctor":6701,"choo":6702,"##ceed":6703,"pee":6704,"pelic":6705,"timber":6706,"trian":6707,"tribal":6708,"##herd":6709,"melt":6710,"placed":6711,"backpack":6712,"quay":6713,"enforce":6714,"offering":6715,"##ifted":6716,"pray":6717,"shoulder":6718,"cares":6719,"recover":6720,"recession":6721,"monitor":6722,"supper":6723,"leaf":6724,"slacks":6725,"funeral":6726,"curb":6727,"boots":6728,"miner":6729,"taxed":6730,"##udes":6731,"##uddy":6732,"director":6733,"award":6734,"skerry":6735,"recycl":6736,"builds":6737,"surr":6738,"grandd":6739,"entit":6740,"controvers":6741,"passen":6742,"medium":6743,"springs":6744,"distur":6745,"farming":6746,"tendency":6747,"landed":6748,"pollut":6749,"messed":6750,"brake":6751,"strip":6752,"layer":6753,"balls":6754,"Argent":6755,"leader":6756,"fitness":6757,"rolls":6758,"laund":6759,"shotgun":6760,"dumping":6761,"photogra":6762,"applications":6763,"entertaining":6764,"printer":6765,"primary":6766,"encouraged":6767,"borders":6768,"included":6769,"dispute":6770,"advertising":6771,"tower":6772,"frost":6773,"frozen":6774,"respon":6775,"##working":6776,"determined":6777,"adopted":6778,"##ivalent":6779,"travelling":6780,"urban":6781,"candidate":6782,"additional":6783,"Rochester":6784,"LAMB":6785,"novels":6786,"##IVE":6787,"tastes":6788,"document":6789,"holyhead":6790,"consequ":6791,"gentleman":6792,"remarkable":6793,"Security":6794,"mobile":6795,"workshop":6796,"seagulls":6797,"trumpet":6798,"girlfriend":6799,"specifically":6800,"General":6801,"Hispan":6802,"September":6803,"nasty":6804,"peedie":6805,"Clarion":6806,"cucu":6807,"crocod":6808,"false":6809,"pelicans":6810,"triangle":6811,"skerrymor":6812,"Add":6813,"Bur":6814,"Bell":6815,"Dur":6816,"Eag":6817,"Hu":6818,"King":6819,"Kansas":6820,"Okay":6821,"One":6822,"bite":6823,"cong":6824,"gifts":6825,"mowing":6826,"och":6827,"ration":6828,"rous":6829,"rob":6830,"tires":6831,"veter":6832,"##deen":6833,"##gly":6834,"##gers":6835,"##mon":6836,"##mal":6837,"##bach":6838,"##yre":6839,"##NCE":6840,"##field":6841,"##fields":6842,"##eague":6843,"toy":6844,"tonic":6845,"wed":6846,"##ghetti":6847,"##otic":6848,"##eday":6849,"knitting":6850,"##idy":6851,"##ici":6852,"stol":6853,"storms":6854,"##iser":6855,"shots":6856,"era":6857,"upd":6858,"gotta":6859,"##raft":6860,"fried":6861,"##asions":6862,"##aming":6863,"##artment":6864,"user":6865,"someday":6866,"plug":6867,"diale":6868,"##ades":6869,"arch":6870,"##iece":6871,"agent":6872,"convert":6873,"offend":6874,"##ousy":6875,"schooling":6876,"carr":6877,"bricks":6878,"priced":6879,"handling":6880,"##osh":6881,"##eling":6882,"fold":6883,"crot":6884,"crusher":6885,"supplement":6886,"ads":6887,"adapt":6888,"tramp":6889,"slant":6890,"enjoyment":6891,"finances":6892,"scatter":6893,"boiler":6894,"resident":6895,"editor":6896,"husbands":6897,"impress":6898,"##epherd":6899,"committing":6900,"nineties":6901,"consum":6902,"##nedy":6903,"subse":6904,"walks":6905,"##ibilities":6906,"accused":6907,"waited":6908,"costing":6909,"infect":6910,"located":6911,"nursery":6912,"horror":6913,"beneficial":6914,"mills":6915,"solar":6916,"##ruary":6917,"exception":6918,"drops":6919,"legit":6920,"economics":6921,"churches":6922,"crew":6923,"limestone":6924,"##mingham":6925,"cotton":6926,"operating":6927,"Thanks":6928,"constant":6929,"leaders":6930,"depressing":6931,"dredged":6932,"professionals":6933,"Super":6934,"semic":6935,"filter":6936,"sanday":6937,"Social":6938,"application":6939,"wheels":6940,"suffering":6941,"loaded":6942,"teenage":6943,"juice":6944,"minority":6945,"Shepherd":6946,"reunions":6947,"appeals":6948,"branches":6949,"soup":6950,"calcul":6951,"returned":6952,"cultures":6953,"bicycles":6954,"bulbs":6955,"##ermans":6956,"priority":6957,"connection":6958,"sweaters":6959,"##works":6960,"exercises":6961,"purely":6962,"angry":6963,"struggling":6964,"crashed":6965,"Kennedy":6966,"consistent":6967,"authority":6968,"historical":6969,"SIX":6970,"transferred":6971,"rhos":6972,"universal":6973,"athlet":6974,"mentally":6975,"analysis":6976,"landfill":6977,"Republican":6978,"spirit":6979,"pipes":6980,"executive":6981,"Lewisville":6982,"Sherman":6983,"WORLD":6984,"surround":6985,"laundry":6986,"LAMBS":6987,"rousay":6988,"stolen":6989,"dialect":6990,"Ad":6991,"Civil":6992,"Do":6993,"Des":6994,"DALL":6995,"ED":6996,"HE":6997,"Hey":6998,"Jes":6999,"Jack":7000,"Lab":7001,"Must":7002,"Mont":7003,"Pu":7004,"PR":7005,"PRE":7006,"Sp":7007,"Vol":7008,"We":7009,"august":7010,"bod":7011,"bred":7012,"cub":7013,"fought":7014,"fits":7015,"fired":7016,"fitting":7017,"gro":7018,"hose":7019,"joint":7020,"loud":7021,"lousy":7022,"nail":7023,"tide":7024,"tuesday":7025,"##nies":7026,"##avor":7027,"##avers":7028,"##rid":7029,"##ias":7030,"##gam":7031,"##mers":7032,"##OC":7033,"##vo":7034,"##fo":7035,"##PH":7036,"theat":7037,"##ini":7038,"##attle":7039,"tox":7040,"toys":7041,"##rey":7042,"##star":7043,"##oms":7044,"soda":7045,"liqu":7046,"righty":7047,"stable":7048,"stiff":7049,"fork":7050,"former":7051,"abused":7052,"##outing":7053,"shown":7054,"shifts":7055,"rein":7056,"reim":7057,"reven":7058,"allerg":7059,"mood":7060,"canoes":7061,"plates":7062,"guitar":7063,"core":7064,"aggress":7065,"quot":7066,"clay":7067,"enorm":7068,"manual":7069,"overwh":7070,"##ouses":7071,"homem":7072,"olds":7073,"bitty":7074,"interior":7075,"##elt":7076,"unions":7077,"belief":7078,"lap":7079,"afterno":7080,"grands":7081,"crop":7082,"grind":7083,"grows":7084,"recre":7085,"##ister":7086,"##isted":7087,"##istically":7088,"##LENCE":7089,"counting":7090,"trap":7091,"faith":7092,"curves":7093,"flavor":7094,"##achel":7095,"diss":7096,"disab":7097,"resort":7098,"incor":7099,"incident":7100,"##ivity":7101,"##issipp":7102,"eleph":7103,"released":7104,"attempt":7105,"swan":7106,"baked":7107,"moral":7108,"hood":7109,"##anged":7110,"studies":7111,"accent":7112,"painful":7113,"surf":7114,"cornfields":7115,"##elling":7116,"controls":7117,"medication":7118,"cleaners":7119,"woodworking":7120,"shortly":7121,"##gged":7122,"magn":7123,"ladder":7124,"recorded":7125,"responsibilities":7126,"##ANT":7127,"smooth":7128,"##ENT":7129,"packed":7130,"carpool":7131,"visitors":7132,"sickness":7133,"filling":7134,"rolling":7135,"honor":7136,"environmental":7137,"files":7138,"attitudes":7139,"touched":7140,"drinking":7141,"##evit":7142,"rapid":7143,"complaining":7144,"arguing":7145,"aerobic":7146,"competitive":7147,"cultural":7148,"tenth":7149,"memories":7150,"bearing":7151,"selected":7152,"welcome":7153,"initially":7154,"connected":7155,"shocked":7156,"commitment":7157,"gorillas":7158,"unemployed":7159,"##teenth":7160,"##ounced":7161,"chairman":7162,"comparison":7163,"MasterC":7164,"journey":7165,"##glas":7166,"legislation":7167,"crying":7168,"owe":7169,"midwife":7170,"Seattle":7171,"SILENCE":7172,"ratio":7173,"jogging":7174,"poisoned":7175,"tournament":7176,"cancel":7177,"reliable":7178,"accomplish":7179,"lasag":7180,"powder":7181,"unreal":7182,"bureaucracy":7183,"Navy":7184,"orcadian":7185,"anglesey":7186,"overcrow":7187,"Arkansas":7188,"motorcyc":7189,"Nissan":7190,"photographer":7191,"cucumbers":7192,"scattered":7193,"Thanksgiving":7194,"DALLAS":7195,"Mustang":7196,"enormous":7197,"overwhel":7198,"afternoons":7199,"##issippi":7200,"Card":7201,"Gi":7202,"Hus":7203,"Jul":7204,"Mot":7205,"Neb":7206,"Port":7207,"Sad":7208,"Valley":7209,"WH":7210,"Waco":7211,"ain":7212,"bid":7213,"bone":7214,"dances":7215,"eq":7216,"fisher":7217,"gri":7218,"les":7219,"lined":7220,"mower":7221,"oops":7222,"pou":7223,"pizz":7224,"rig":7225,"rip":7226,"ropes":7227,"san":7228,"sway":7229,"ti":7230,"ven":7231,"weak":7232,"wyre":7233,"ya":7234,"##oen":7235,"##aren":7236,"##eed":7237,"##uing":7238,"##uation":7239,"##uable":7240,"##lers":7241,"##hal":7242,"##hony":7243,"##ga":7244,"##path":7245,"##mo":7246,"##US":7247,"##yon":7248,"##EEK":7249,"##IBLE":7250,"##GE":7251,"thunder":7252,"tong":7253,"##reck":7254,"thatched":7255,"##oring":7256,"inject":7257,"##ayed":7258,"##sein":7259,"##leg":7260,"hump":7261,"##kel":7262,"##idently":7263,"stink":7264,"##verty":7265,"ank":7266,"sections":7267,"##imer":7268,"##urning":7269,"shaped":7270,"##rol":7271,"moist":7272,"chew":7273,"chos":7274,"alert":7275,"alarm":7276,"##amb":7277,"##ament":7278,"peppers":7279,"trou":7280,"tread":7281,"expend":7282,"##ourmet":7283,"##andal":7284,"##ula":7285,"##ulting":7286,"##olit":7287,"##advant":7288,"##rier":7289,"bug":7290,"climate":7291,"manner":7292,"poverty":7293,"carriage":7294,"underta":7295,"interval":7296,"##erties":7297,"trailer":7298,"owns":7299,"disk":7300,"disadvant":7301,"apple":7302,"writer":7303,"streams":7304,"fewer":7305,"invaded":7306,"typewr":7307,"mature":7308,"relie":7309,"release":7310,"extro":7311,"##uda":7312,"camper":7313,"skunk":7314,"infant":7315,"desper":7316,"retriever":7317,"closely":7318,"footpath":7319,"airpl":7320,"experienced":7321,"entry":7322,"winning":7323,"adding":7324,"sprink":7325,"rained":7326,"discoura":7327,"specialist":7328,"landing":7329,"cardboard":7330,"burgl":7331,"dropping":7332,"traveled":7333,"messages":7334,"brass":7335,"golfer":7336,"tomato":7337,"developing":7338,"eval":7339,"clearing":7340,"squash":7341,"leading":7342,"discussing":7343,"membership":7344,"penalties":7345,"semi":7346,"neighborhoods":7347,"launch":7348,"protection":7349,"protective":7350,"##apped":7351,"funded":7352,"balanced":7353,"springbo":7354,"scient":7355,"languages":7356,"gallons":7357,"investig":7358,"lodging":7359,"bloody":7360,"locked":7361,"jurors":7362,"promot":7363,"pitching":7364,"relationships":7365,"shallow":7366,"##ermuda":7367,"lifest":7368,"internal":7369,"TWO":7370,"selecting":7371,"associated":7372,"initial":7373,"conductor":7374,"progressive":7375,"principle":7376,"permission":7377,"Mississippi":7378,"procedures":7379,"gangs":7380,"cups":7381,"tuned":7382,"tablesp":7383,"exhib":7384,"annoying":7385,"outdoors":7386,"crawfish":7387,"LAW":7388,"arrangements":7389,"SHOW":7390,"ultimately":7391,"lectures":7392,"supplied":7393,"arthrit":7394,"american":7395,"scenes":7396,"tractor":7397,"Brooks":7398,"##raska":7399,"scares":7400,"##IFE":7401,"heavily":7402,"Eastern":7403,"Oakland":7404,"spaghetti":7405,"transmission":7406,"shovel":7407,"album":7408,"Schw":7409,"##iques":7410,"Ryan":7411,"Chrysler":7412,"MINUT":7413,"throat":7414,"response":7415,"Addison":7416,"subsequently":7417,"SIXTY":7418,"reimb":7419,"lasagna":7420,"Giants":7421,"Nebraska":7422,"equally":7423,"chosen":7424,"Ari":7425,"Four":7426,"How":7427,"Ill":7428,"Land":7429,"Nove":7430,"Par":7431,"Pers":7432,"Ret":7433,"Schn":7434,"Te":7435,"Ten":7436,"WALL":7437,"Winter":7438,"bio":7439,"cel":7440,"cord":7441,"cyn":7442,"dy":7443,"dug":7444,"david":7445,"ep":7446,"jew":7447,"pant":7448,"pork":7449,"rings":7450,"races":7451,"rational":7452,"ties":7453,"tumb":7454,"ugly":7455,"vans":7456,"wou":7457,"##aks":7458,"##ien":7459,"##illy":7460,"##ios":7461,"##hill":7462,"##OD":7463,"##UN":7464,"##TTY":7465,"##fting":7466,"##RY":7467,"##VER":7468,"##erved":7469,"##oman":7470,"##eding":7471,"dol":7472,"dose":7473,"dokey":7474,"##lend":7475,"steep":7476,"steady":7477,"##change":7478,"##lyn":7479,"selection":7480,"##imum":7481,"##imney":7482,"##thest":7483,"orange":7484,"##acing":7485,"shorter":7486,"caval":7487,"rely":7488,"reck":7489,"moves":7490,"worn":7491,"champ":7492,"chimney":7493,"mas":7494,"##essions":7495,"canal":7496,"twins":7497,"##ppie":7498,"dial":7499,"##ourse":7500,"guilt":7501,"arc":7502,"cock":7503,"premed":7504,"##mented":7505,"bund":7506,"quant":7507,"quavers":7508,"clip":7509,"clients":7510,"acting":7511,"##antial":7512,"brill":7513,"breast":7514,"newmarket":7515,"interf":7516,"interact":7517,"##eled":7518,"firms":7519,"uns":7520,"belts":7521,"playoffs":7522,"hardware":7523,"ending":7524,"tens":7525,"bask":7526,"scre":7527,"marry":7528,"dism":7529,"##ummy":7530,"apples":7531,"appointed":7532,"impl":7533,"warrant":7534,"catalog":7535,"relations":7536,"reluct":7537,"picks":7538,"consulting":7539,"menu":7540,"##ibly":7541,"headlines":7542,"foundation":7543,"governor":7544,"salaries":7545,"minded":7546,"desp":7547,"servants":7548,"Step":7549,"locally":7550,"##airy":7551,"entr":7552,"considerably":7553,"proportion":7554,"fortune":7555,"discount":7556,"shoe":7557,"visits":7558,"allows":7559,"produced":7560,"##ggy":7561,"supported":7562,"buried":7563,"hurts":7564,"hurric":7565,"behave":7566,"frequ":7567,"redo":7568,"biased":7569,"voters":7570,"format":7571,"marketing":7572,"##ashed":7573,"demon":7574,"superintend":7575,"dryer":7576,"depressed":7577,"confidence":7578,"glasses":7579,"correctly":7580,"inclined":7581,"dumped":7582,"requirement":7583,"murdered":7584,"coastline":7585,"##ATION":7586,"switched":7587,"##evin":7588,"suffer":7589,"vegetarian":7590,"combine":7591,"participated":7592,"Alask":7593,"incredibly":7594,"convenience":7595,"encouraging":7596,"hyster":7597,"clerks":7598,"contractor":7599,"bearings":7600,"status":7601,"structured":7602,"objective":7603,"advertised":7604,"tremendously":7605,"broadcast":7606,"register":7607,"deductions":7608,"scores":7609,"democratic":7610,"severely":7611,"hungry":7612,"divorce":7613,"attorneys":7614,"tornad":7615,"continuous":7616,"scholarships":7617,"climbing":7618,"Barb":7619,"darned":7620,"universities":7621,"cycle":7622,"freezing":7623,"arthur":7624,"published":7625,"muscle":7626,"screaming":7627,"Robert":7628,"WOMAN":7629,"porch":7630,"emphasis":7631,"destroyed":7632,"##heimer":7633,"sophist":7634,"removed":7635,"##quarters":7636,"Olds":7637,"interpret":7638,"Mavericks":7639,"##inois":7640,"orchest":7641,"synthes":7642,"choosing":7643,"Argentina":7644,"crocodiles":7645,"legitimate":7646,"Desert":7647,"PRETTY":7648,"toxic":7649,"Hussein":7650,"Saddam":7651,"arthritis":7652,"Illinois":7653,"Schnau":7654,"cavalry":7655,"superintendent":7656,"April":7657,"Bill":7658,"Bowl":7659,"Buddy":7660,"Cop":7661,"Disc":7662,"EX":7663,"Ear":7664,"Feb":7665,"Gor":7666,"Holly":7667,"Kevin":7668,"Med":7669,"Met":7670,"Mother":7671,"Nol":7672,"ONE":7673,"PE":7674,"REP":7675,"SP":7676,"Smith":7677,"TE":7678,"Town":7679,"Verm":7680,"aug":7681,"ber":7682,"cows":7683,"fres":7684,"gross":7685,"gourmet":7686,"jut":7687,"keeper":7688,"lin":7689,"mary":7690,"oz":7691,"pig":7692,"ripped":7693,"tug":7694,"vit":7695,"witt":7696,"wreck":7697,"##oft":7698,"##ald":7699,"##sit":7700,"##ij":7701,"##iac":7702,"##lin":7703,"##ki":7704,"##kra":7705,"##ded":7706,"##cope":7707,"##gie":7708,"##geant":7709,"##wide":7710,"##mob":7711,"##zona":7712,"##zheimer":7713,"##MER":7714,"##DER":7715,"##jud":7716,"thursday":7717,"##inate":7718,"##erdeen":7719,"##reland":7720,"haz":7721,"habits":7722,"inevit":7723,"##onies":7724,"dole":7725,"beg":7726,"##eting":7727,"##etty":7728,"##aron":7729,"##keep":7730,"##ico":7731,"##icar":7732,"limb":7733,"stow":7734,"stim":7735,"stages":7736,"##cher":7737,"justify":7738,"##ales":7739,"aberdeen":7740,"heels":7741,"##urt":7742,"cakes":7743,"##roid":7744,"negle":7745,"worries":7746,"masters":7747,"##amber":7748,"##illery":7749,"##ests":7750,"twist":7751,"workout":7752,"mush":7753,"comments":7754,"digging":7755,"##ulate":7756,"##ulated":7757,"##oli":7758,"coc":7759,"envel":7760,"##mel":7761,"inte":7762,"intu":7763,"intend":7764,"offs":7765,"##hman":7766,"realizing":7767,"caring":7768,"##antic":7769,"compete":7770,"homeless":7771,"pron":7772,"spons":7773,"thread":7774,"unh":7775,"sixpence":7776,"carefully":7777,"persu":7778,"MUR":7779,"curricul":7780,"elsewhere":7781,"##aches":7782,"boom":7783,"boating":7784,"disg":7785,"##umes":7786,"deciding":7787,"##xture":7788,"##enses":7789,"youngsters":7790,"matern":7791,"fuse":7792,"reporter":7793,"dealership":7794,"features":7795,"##aughter":7796,"##ontiac":7797,"heads":7798,"headquarters":7799,"accum":7800,"statements":7801,"skied":7802,"engaged":7803,"planes":7804,"nearer":7805,"desire":7806,"checkbook":7807,"machete":7808,"winters":7809,"privile":7810,"advise":7811,"occasions":7812,"solutions":7813,"##ruption":7814,"remod":7815,"remove":7816,"judgment":7817,"radical":7818,"colour":7819,"organize":7820,"powerful":7821,"economically":7822,"pressed":7823,"individually":7824,"strikes":7825,"technically":7826,"techniques":7827,"grounds":7828,"##ORK":7829,"##ORTS":7830,"models":7831,"bands":7832,"faced":7833,"##ONS":7834,"cooler":7835,"grandma":7836,"separated":7837,"borough":7838,"jails":7839,"conversations":7840,"increases":7841,"Club":7842,"Alzheimer":7843,"literature":7844,"subsid":7845,"debts":7846,"replaced":7847,"promote":7848,"traded":7849,"belonged":7850,"Austral":7851,"gained":7852,"George":7853,"shilling":7854,"religion":7855,"breeding":7856,"furnishing":7857,"crowded":7858,"printed":7859,"critic":7860,"miniature":7861,"##OWN":7862,"suburbs":7863,"travelled":7864,"concerts":7865,"injuries":7866,"resolved":7867,"sympath":7868,"resource":7869,"restrictions":7870,"delivered":7871,"extensive":7872,"appearance":7873,"muscles":7874,"drastic":7875,"Connect":7876,"escape":7877,"##OPLE":7878,"indoor":7879,"title":7880,"shaft":7881,"apprenticeship":7882,"Costner":7883,"phenomenal":7884,"stroke":7885,"toilet":7886,"predomin":7887,"enthus":7888,"Dodge":7889,"september":7890,"recyclable":7891,"##bachev":7892,"offenders":7893,"##achelor":7894,"MasterCard":7895,"##oenix":7896,"tongue":7897,"typewriter":7898,"springboks":7899,"Arizona":7900,"November":7901,"Retriever":7902,"brilliant":7903,"hysterical":7904,"sophisticated":7905,"Oldsmob":7906,"Discover":7907,"February":7908,"Gorbachev":7909,"PEOPLE":7910,"Vermont":7911,"ozone":7912,"vitam":7913,"neglect":7914,"envelope":7915,",,":7916,"Brian":7917,"Cub":7918,"DE":7919,"Dou":7920,"Fl":7921,"GOOD":7922,"Hill":7923,"Int":7924,"Joe":7925,"League":7926,"LIFE":7927,"Maz":7928,"MAN":7929,"Peter":7930,"Purd":7931,"Pontiac":7932,"Rome":7933,"Rock":7934,"River":7935,"Sk":7936,"Sim":7937,"Ty":7938,"ade":7939,"cyl":7940,"duck":7941,"gift":7942,"germans":7943,"june":7944,"jugs":7945,"lever":7946,"mate":7947,"opt":7948,"pies":7949,"pace":7950,"rank":7951,"sam":7952,"tee":7953,"tins":7954,"tanks":7955,"vice":7956,"vary":7957,"wool":7958,"##namese":7959,"##sed":7960,"##eu":7961,"##elly":7962,"##eff":7963,"##even":7964,"##rison":7965,"##rimin":7966,"##iot":7967,"##iple":7968,"##lass":7969,"##lete":7970,"##kward":7971,"##kirk":7972,"##cetera":7973,"##gy":7974,"##mes":7975,"##mill":7976,"##EERS":7977,"##vation":7978,"##AK":7979,"##DAY":7980,"##oust":7981,"##err":7982,"##eagues":7983,"hav":7984,"##orate":7985,"inher":7986,"whom":7987,"##uther":7988,"##itation":7989,"##itude":7990,"wander":7991,"##icut":7992,"lib":7993,"stacks":7994,"forked":7995,"##verts":7996,"##verted":7997,"anxious":7998,"##acific":7999,"shing":8000,"##irl":8001,"##roll":8002,"rele":8003,"reward":8004,"##tery":8005,"frank":8006,"chunk":8007,"china":8008,"chairs":8009,"peop":8010,"##ffalo":8011,"proof":8012,"##arts":8013,"shepher":8014,"exchange":8015,"##andy":8016,"safer":8017,"##rie":8018,"coin":8019,"quil":8020,"quilt":8021,"clue":8022,"december":8023,"deleg":8024,"manure":8025,"daycare":8026,"intent":8027,"intro":8028,"##ifery":8029,"tech":8030,"##eading":8031,"loving":8032,"compos":8033,"brid":8034,"greed":8035,"interrupt":8036,"childhood":8037,"##aging":8038,"longest":8039,"##she":8040,"hiking":8041,"lazy":8042,"lets":8043,"beforehand":8044,"grate":8045,"counts":8046,"elig":8047,"factories":8048,"tyres":8049,"fav":8050,"flaming":8051,"bases":8052,"scandal":8053,"##sburg":8054,"boil":8055,"sergeant":8056,"strang":8057,"wars":8058,"decr":8059,"dolls":8060,"invited":8061,"insp":8062,"pasta":8063,"believed":8064,"instances":8065,"attacks":8066,"swear":8067,"swamp":8068,"extend":8069,"classics":8070,"##lando":8071,"concl":8072,"morals":8073,"holl":8074,"awkward":8075,"governments":8076,"baboons":8077,"absent":8078,"fathers":8079,"eats":8080,"presume":8081,"hotels":8082,"cleaner":8083,"hopes":8084,"circular":8085,"specialized":8086,"brocc":8087,"assess":8088,"varies":8089,"varied":8090,"judging":8091,"extraord":8092,"latex":8093,"equivalent":8094,"colored":8095,"##ocate":8096,"diameter":8097,"volume":8098,"continued":8099,"patio":8100,"reduced":8101,"biking":8102,"##ologist":8103,"emissions":8104,"modem":8105,"routes":8106,"packages":8107,"growth":8108,"floating":8109,"leadership":8110,"fitters":8111,"explos":8112,"physics":8113,"Penn":8114,"dependent":8115,"lawns":8116,"##nessee":8117,"receiving":8118,"sufficient":8119,"advantages":8120,"loading":8121,"touching":8122,"schedul":8123,"joiner":8124,"Vietnamese":8125,"Saturdays":8126,"arrived":8127,"arranged":8128,"volley":8129,"bloke":8130,"blooming":8131,"nonex":8132,"dedicated":8133,"suitable":8134,"networks":8135,"devast":8136,"device":8137,"described":8138,"##OST":8139,"islands":8140,"photographs":8141,"recognized":8142,"interviewed":8143,"Russian":8144,"frightened":8145,"regardless":8146,"Orlando":8147,"steward":8148,"Phoenix":8149,"sensible":8150,"scrap":8151,"etcetera":8152,"Buick":8153,"Buffalo":8154,"frustrated":8155,"kicked":8156,"intellect":8157,"stitching":8158,"permit":8159,"##veston":8160,"unlike":8161,"injured":8162,"racing":8163,"tornado":8164,"CHEERS":8165,"Jimmy":8166,"midwifery":8167,"Democrat":8168,"ultimate":8169,"jacket":8170,"cassette":8171,"athlete":8172,"ashore":8173,"america":8174,"Brook":8175,"drastically":8176,"stretch":8177,"compensation":8178,"handguns":8179,"maximum":8180,"cellar":8181,"selkirk":8182,"chips":8183,"flew":8184,"treasure":8185,"##standing":8186,"british":8187,"embarrassed":8188,"Galveston":8189,"proposal":8190,"achieve":8191,"pistol":8192,"residential":8193,"Puerto":8194,"aggressive":8195,"grandson":8196,"recreation":8197,"rapidly":8198,"Motors":8199,"##olitan":8200,"lifestyle":8201,"Persian":8202,"Tennessee":8203,"celery":8204,"premeditated":8205,"baskets":8206,"Alaska":8207,"augmented":8208,"witton":8209,"Connecticut":8210,"adequ":8211,"shepherd":8212,"volleyball":8213,"AT":8214,"AMER":8215,"BE":8216,"Brit":8217,"Camp":8218,"Center":8219,"Dist":8220,"Dep":8221,"David":8222,"Ed":8223,"FOR":8224,"Green":8225,"Jud":8226,"Kurd":8227,"MY":8228,"Mes":8229,"Max":8230,"Nancy":8231,"RA":8232,"Roy":8233,"Six":8234,"Tra":8235,"TUR":8236,"apt":8237,"cree":8238,"cri":8239,"gig":8240,"horn":8241,"jim":8242,"mere":8243,"nerve":8244,"ou":8245,"roses":8246,"wick":8247,"##ok":8248,"##sp":8249,"##sen":8250,"##squ":8251,"##eer":8252,"##rom":8253,"##ipt":8254,"##uous":8255,"##kin":8256,"##cill":8257,"##card":8258,"##hen":8259,"##pass":8260,"##we":8261,"##mouth":8262,"##OT":8263,"##fl":8264,"##fect":8265,"##VE":8266,"theft":8267,"##inous":8268,"##atus":8269,"##eapp":8270,"token":8271,"##ori":8272,"inex":8273,"whist":8274,"##omb":8275,"##utch":8276,"##oty":8277,"##itz":8278,"wan":8279,"waist":8280,"bef":8281,"bevan":8282,"##etime":8283,"goals":8284,"sof":8285,"lime":8286,"##ustin":8287,"stea":8288,"steaks":8289,"##isms":8290,"##chets":8291,"rear":8292,"react":8293,"sees":8294,"abroad":8295,"orth":8296,"##urer":8297,"shared":8298,"shade":8299,"##rofo":8300,"allowing":8301,"mosqu":8302,"anyways":8303,"##geon":8304,"chlor":8305,"chase":8306,"chamber":8307,"pend":8308,"pecul":8309,"lottery":8310,"muff":8311,"downhill":8312,"sheep":8313,"exists":8314,"exempt":8315,"plot":8316,"##acket":8317,"##andud":8318,"##uls":8319,"twos":8320,"prejud":8321,"backed":8322,"quid":8323,"clar":8324,"teles":8325,"loaf":8326,"thrill":8327,"william":8328,"##inted":8329,"hip":8330,"lax":8331,"nicely":8332,"tops":8333,"monit":8334,"spends":8335,"century":8336,"highways":8337,"##eases":8338,"slice":8339,"slide":8340,"blows":8341,"llandud":8342,"colleagues":8343,"alongside":8344,"fare":8345,"stranger":8346,"warmer":8347,"watering":8348,"invent":8349,"invade":8350,"##ivic":8351,"phra":8352,"phones":8353,"raw":8354,"repa":8355,"deals":8356,"feature":8357,"agreements":8358,"subt":8359,"##anges":8360,"studied":8361,"parched":8362,"treble":8363,"trends":8364,"easter":8365,"headed":8366,"skill":8367,"matters":8368,"england":8369,"obtain":8370,"girran":8371,"publicity":8372,"Steve":8373,"bedtime":8374,"fires":8375,"covering":8376,"simpl":8377,"##rooms":8378,"stationed":8379,"stationmaster":8380,"corruption":8381,"lighter":8382,"rides":8383,"##ERAL":8384,"advanced":8385,"budgets":8386,"pennies":8387,"neighbour":8388,"##ESS":8389,"polluted":8390,"##esterly":8391,"patient":8392,"pressures":8393,"freon":8394,"##onnaise":8395,"furthest":8396,"daddy":8397,"renting":8398,"valuable":8399,"managers":8400,"practicing":8401,"##ification":8402,"councill":8403,"reform":8404,"router":8405,"artist":8406,"occasional":8407,"floors":8408,"industries":8409,"poorer":8410,"sweets":8411,"semit":8412,"sandwich":8413,"antib":8414,"damaged":8415,"##aval":8416,"protecting":8417,"closest":8418,"posted":8419,"switchboard":8420,"styles":8421,"conversion":8422,"combat":8423,"contribution":8424,"promise":8425,"birmingham":8426,"laughing":8427,"alternate":8428,"sporting":8429,"assistance":8430,"lifetime":8431,"orders":8432,"##ascal":8433,"rubb":8434,"challenging":8435,"deductible":8436,"aunts":8437,"Dayton":8438,"batteries":8439,"White":8440,"guaranteed":8441,"injury":8442,"resolve":8443,"effectively":8444,"psychology":8445,"convince":8446,"identify":8447,"leaning":8448,"ounces":8449,"historically":8450,"Democrats":8451,"Cafe":8452,"revolution":8453,"darn":8454,"utilities":8455,"administrator":8456,"supplies":8457,"premises":8458,"bangor":8459,"aggravating":8460,"##ometers":8461,"astron":8462,"rifle":8463,"snake":8464,"counselor":8465,"suspenseful":8466,"Arabia":8467,"buttons":8468,"purchases":8469,"taxpayers":8470,"aboard":8471,"agricultural":8472,"entitled":8473,"passenger":8474,"pollutants":8475,"consequences":8476,"wednesday":8477,"carrots":8478,"crotchets":8479,"liquid":8480,"pizza":8481,"MINUTES":8482,"tumbler":8483,"dismiss":8484,"entrance":8485,"demonstr":8486,"stowmarket":8487,"curriculum":8488,"sympathetic":8489,"Mazda":8490,"Purdue":8491,"Tyler":8492,"flamingoes":8493,"broccoli":8494,"AMERIC":8495,"District":8496,"##rofoam":8497,"mosquit":8498,"peculiar":8499,"llandudno":8500,"\".":8501,"Ab":8502,"AL":8503,"Acc":8504,"Big":8505,"Bob":8506,"Bird":8507,"Base":8508,"Bermuda":8509,"Del":8510,"ENE":8511,"Fed":8512,"Fred":8513,"Fox":8514,"GH":8515,"Honey":8516,"Hum":8517,"Jerry":8518,"Jeff":8519,"Lot":8520,"Mad":8521,"Mountain":8522,"Mike":8523,"NIN":8524,"Pre":8525,"Pol":8526,"Paul":8527,"Rico":8528,"Sat":8529,"Sen":8530,"Sar":8531,"SLE":8532,"Science":8533,"TV":8534,"Wood":8535,"Yan":8536,"YORK":8537,"bac":8538,"bury":8539,"cer":8540,"cried":8541,"ditch":8542,"dairy":8543,"ff":8544,"fer":8545,"fulf":8546,"ger":8547,"hilar":8548,"jam":8549,"jug":8550,"lone":8551,"nut":8552,"ol":8553,"pean":8554,"peas":8555,"pits":8556,"ram":8557,"rul":8558,"sang":8559,"sessions":8560,"##oked":8561,"##aves":8562,"##tles":8563,"##ik":8564,"##iance":8565,"##iums":8566,"##uff":8567,"##uine":8568,"##lu":8569,"##like":8570,"##down":8571,"##pensive":8572,"##mond":8573,"##mare":8574,"##burn":8575,"##bons":8576,"##MA":8577,"##MY":8578,"##vad":8579,"##HING":8580,"##LY":8581,"##jun":8582,"therap":8583,"##inals":8584,"##inental":8585,"##erable":8586,"##earest":8587,"##reet":8588,"##rels":8589,"##esame":8590,"hail":8591,"hack":8592,"##stick":8593,"whiz":8594,"whip":8595,"knife":8596,"beep":8597,"##anas":8598,"##ara":8599,"##iceable":8600,"##isy":8601,"##iments":8602,"abortion":8603,"error":8604,"cage":8605,"seek":8606,"neph":8607,"##rain":8608,"outer":8609,"cha":8610,"chas":8611,"maker":8612,"cannae":8613,"timer":8614,"proven":8615,"proved":8616,"mum":8617,"yearly":8618,"##aborate":8619,"##ulating":8620,"##ading":8621,"whoa":8622,"##iel":8623,"enem":8624,"mans":8625,"intention":8626,"offers":8627,"actions":8628,"mayonnaise":8629,"realistically":8630,"compat":8631,"compartment":8632,"pretend":8633,"hero":8634,"afgh":8635,"unqu":8636,"drum":8637,"acce":8638,"perception":8639,"greatly":8640,"fox":8641,"cruel":8642,"grants":8643,"lasted":8644,"watches":8645,"##izes":8646,"##usive":8647,"spell":8648,"specially":8649,"counted":8650,"trail":8651,"leak":8652,"finds":8653,"elaborate":8654,"##easible":8655,"curvy":8656,"tenor":8657,"flute":8658,"basics":8659,"placement":8660,"scouts":8661,"march":8662,"boot":8663,"sites":8664,"displ":8665,"disability":8666,"interestingly":8667,"nightmare":8668,"##onscious":8669,"struck":8670,"symb":8671,"inciner":8672,"invite":8673,"##bling":8674,"explor":8675,"define":8676,"Chow":8677,"Chev":8678,"conscient":8679,"boyf":8680,"republic":8681,"attended":8682,"subd":8683,"bait":8684,"earned":8685,"parl":8686,"parce":8687,"##iog":8688,"southw":8689,"nearby":8690,"costly":8691,"bench":8692,"glue":8693,"retain":8694,"Storm":8695,"airline":8696,"surpl":8697,"presents":8698,"avid":8699,"gardener":8700,"bananas":8701,"passes":8702,"corrupt":8703,"sells":8704,"hopeless":8705,"singer":8706,"wears":8707,"discrimin":8708,"tended":8709,"wished":8710,"##obby":8711,"typing":8712,"##ocated":8713,"exams":8714,"thankful":8715,"snap":8716,"economical":8717,"tougher":8718,"professors":8719,"managing":8720,"garlic":8721,"avoided":8722,"productive":8723,"refuse":8724,"refused":8725,"possibilities":8726,"##ARS":8727,"billion":8728,"billions":8729,"accounting":8730,"discussions":8731,"##OUN":8732,"Carter":8733,"explore":8734,"tours":8735,"tourists":8736,"damn":8737,"secretaries":8738,"affection":8739,"norwich":8740,"##ettes":8741,"buffal":8742,"receipt":8743,"schedules":8744,"spreadshe":8745,"joining":8746,"cartons":8747,"sunny":8748,"Indians":8749,"spoken":8750,"divisional":8751,"competing":8752,"repairing":8753,"threatening":8754,"randomly":8755,"Garth":8756,"inspectors":8757,"devices":8758,"memor":8759,"Scout":8760,"pumps":8761,"Israelis":8762,"panel":8763,"priorities":8764,"liters":8765,"nickel":8766,"chains":8767,"execute":8768,"##garrog":8769,"miserable":8770,"appreciated":8771,"substantial":8772,"sensing":8773,"introduce":8774,"castle":8775,"comedies":8776,"##ounce":8777,"mechanical":8778,"strawberries":8779,"humor":8780,"logical":8781,"Commun":8782,"fiance":8783,"audience":8784,"##AME":8785,"sexual":8786,"bullet":8787,"continuing":8788,"clever":8789,"chores":8790,"ambul":8791,"lecture":8792,"handicapped":8793,"spanked":8794,"enterprise":8795,"reviews":8796,"extension":8797,"guidelines":8798,"tournaments":8799,"rifles":8800,"heavens":8801,"WOMEN":8802,"kilometers":8803,"mirror":8804,"borrowed":8805,"genuine":8806,"mixture":8807,"fashioned":8808,"##ennial":8809,"stereo":8810,"preca":8811,"dominant":8812,"whisky":8813,"Salvad":8814,"##estiniog":8815,"clouds":8816,"addicted":8817,"consuming":8818,"Jesus":8819,"elephants":8820,"biograph":8821,"dolgarrog":8822,"reckon":8823,"champion":8824,"reluctant":8825,"Schnauzer":8826,"disgust":8827,"maternity":8828,"shingles":8829,"eligible":8830,"inexpensive":8831,"steamer":8832,"clarinet":8833,"telescope":8834,"astronom":8835,"Accord":8836,"ENEMY":8837,"Lotus":8838,"SLEEPING":8839,"ffestiniog":8840,"hilarious":8841,"nephew":8842,"conscientious":8843,"Salvador":8844,"Ac":8845,"COM":8846,"CONS":8847,"Dr":8848,"Dick":8849,"Dav":8850,"En":8851,"Gene":8852,"Girl":8853,"He":8854,"Hew":8855,"Hank":8856,"Kor":8857,"Le":8858,"LIVE":8859,"Man":8860,"MAG":8861,"Ne":8862,"ON":8863,"Pacific":8864,"QU":8865,"Que":8866,"Series":8867,"UN":8868,"WAY":8869,"amp":8870,"bing":8871,"bare":8872,"bones":8873,"cush":8874,"congress":8875,"cathy":8876,"dick":8877,"dues":8878,"eve":8879,"feasible":8880,"gut":8881,"gam":8882,"gale":8883,"geared":8884,"january":8885,"kit":8886,"kitt":8887,"kicking":8888,"loo":8889,"lath":8890,"mould":8891,"pills":8892,"sate":8893,"sacks":8894,"session":8895,"tink":8896,"tang":8897,"tidy":8898,"vision":8899,"wing":8900,"##aving":8901,"##taker":8902,"##eenth":8903,"##rome":8904,"##rople":8905,"##rous":8906,"##iate":8907,"##iors":8908,"##ull":8909,"##lets":8910,"##kak":8911,"##corn":8912,"##worth":8913,"##mates":8914,"##bbles":8915,"##yth":8916,"##fty":8917,"##AZ":8918,"thou":8919,"tore":8920,"##ingu":8921,"##reh":8922,"##oral":8923,"##organ":8924,"##vet":8925,"##ede":8926,"##itious":8927,"kno":8928,"##eted":8929,"##annel":8930,"##arn":8931,"##lebr":8932,"##icon":8933,"ster":8934,"stor":8935,"##isure":8936,"seeds":8937,"oranges":8938,"##urers":8939,"##acle":8940,"caps":8941,"alley":8942,"noisy":8943,"##raw":8944,"outf":8945,"chaff":8946,"alike":8947,"peer":8948,"peel":8949,"traction":8950,"##aints":8951,"##abilities":8952,"##uns":8953,"plea":8954,"gue":8955,"##eem":8956,"##asters":8957,"##ulse":8958,"##olf":8959,"##oled":8960,"##riers":8961,"cocon":8962,"##arded":8963,"preval":8964,"backward":8965,"overd":8966,"daytime":8967,"offense":8968,"##ifying":8969,"##ciety":8970,"tender":8971,"poly":8972,"pointing":8973,"coup":8974,"couch":8975,"compact":8976,"newly":8977,"##obs":8978,"##agger":8979,"afore":8980,"donate":8981,"acoust":8982,"perp":8983,"gravy":8984,"rounds":8985,"crown":8986,"lasts":8987,"##pley":8988,"counties":8989,"centered":8990,"elb":8991,"owning":8992,"slower":8993,"strain":8994,"blan":8995,"blade":8996,"smashing":8997,"remembered":8998,"scout":8999,"disaster":9000,"leisure":9001,"##umn":9002,"appeared":9003,"buys":9004,"writes":9005,"strings":9006,"strateg":9007,"##resses":9008,"terror":9009,"##wheel":9010,"decides":9011,"decline":9012,"Texans":9013,"##ensions":9014,"##uces":9015,"booked":9016,"Channel":9017,"rake":9018,"instinct":9019,"attach":9020,"image":9021,"##vention":9022,"camps":9023,"regards":9024,"accustom":9025,"skip":9026,"skilled":9027,"bark":9028,"involves":9029,"importance":9030,"cookies":9031,"cookbook":9032,"drawback":9033,"trains":9034,"cornstar":9035,"presently":9036,"metrop":9037,"affair":9038,"killer":9039,"controlling":9040,"follows":9041,"privately":9042,"properties":9043,"addressed":9044,"communism":9045,"##ddy":9046,"wishes":9047,"allowance":9048,"assign":9049,"popcorn":9050,"condomin":9051,"##EST":9052,"informal":9053,"graduates":9054,"request":9055,"punished":9056,"volt":9057,"voltage":9058,"rental":9059,"valid":9060,"##ENING":9061,"sticky":9062,"personalities":9063,"stronger":9064,"##ORT":9065,"layers":9066,"refin":9067,"ordered":9068,"packing":9069,"squad":9070,"float":9071,"poorly":9072,"depression":9073,"mails":9074,"officially":9075,"surprises":9076,"rolled":9077,"safely":9078,"##boat":9079,"Sox":9080,"Society":9081,"photos":9082,"uncles":9083,"meantime":9084,"villages":9085,"complaint":9086,"salesman":9087,"battle":9088,"conditioner":9089,"Island":9090,"burns":9091,"entertained":9092,"illness":9093,"gallows":9094,"pools":9095,"Cliff":9096,"cheapest":9097,"Canyon":9098,"tupp":9099,"measured":9100,"juris":9101,"portray":9102,"manageress":9103,"Italy":9104,"starter":9105,"clerical":9106,"description":9107,"bulk":9108,"independence":9109,"recognition":9110,"relaxed":9111,"candy":9112,"executed":9113,"recommended":9114,"contacts":9115,"disappear":9116,"celebr":9117,"##ICK":9118,"sensational":9119,"prevention":9120,"concentration":9121,"represented":9122,"robbery":9123,"comparable":9124,"container":9125,"organizer":9126,"##ILD":9127,"logic":9128,"racial":9129,"tuna":9130,"sympt":9131,"restricted":9132,"previously":9133,"Democratic":9134,"wasted":9135,"targets":9136,"climb":9137,"assuming":9138,"cassettes":9139,"handicap":9140,"mentality":9141,"yorkshire":9142,"scenery":9143,"intelligence":9144,"gathered":9145,"negotiations":9146,"needlepoint":9147,"palm":9148,"##stream":9149,"screwed":9150,"expanding":9151,"prospect":9152,"landfills":9153,"perceived":9154,"earnings":9155,"ministry":9156,"ROB":9157,"graphics":9158,"dimension":9159,"witnesses":9160,"defendant":9161,"Continental":9162,"coughing":9163,"dramatic":9164,"exhausted":9165,"Dukak":9166,"lobby":9167,"sacrifice":9168,"Apple":9169,"carbon":9170,"slapstick":9171,"implemented":9172,"commissioners":9173,"evacuation":9174,"BROWN":9175,"Tarpley":9176,"innoc":9177,"granddad":9178,"Hispanic":9179,"impressive":9180,"semicirc":9181,"athletes":9182,"##PHY":9183,"beliefs":9184,"disabled":9185,"incorpor":9186,"overwhelming":9187,"Cardinals":9188,"leslie":9189,"injection":9190,"ankle":9191,"disadvantage":9192,"sprinkler":9193,"scientific":9194,"tablespoon":9195,"dynam":9196,"masking":9197,"interfere":9198,"Nolan":9199,"cocaine":9200,"intuitive":9201,"MURPHY":9202,"Australia":9203,"cylinder":9204,"frankly":9205,"grateful":9206,"absentee":9207,"Campbell":9208,"rubbish":9209,"ALONE":9210,"chasing":9211,"compatible":9212,"unquote":9213,"Davis":9214,"kittens":9215,"satell":9216,"##roplex":9217,"coconut":9218,"cornstarch":9219,"Dukakis":9220,"Bo":9221,"BL":9222,"Bru":9223,"BIBLE":9224,"Cle":9225,"COS":9226,"COOK":9227,"DES":9228,"Gr":9229,"Gl":9230,"GR":9231,"GEN":9232,"Great":9233,"Ireland":9234,"Jun":9235,"Kinder":9236,"Mi":9237,"Mil":9238,"Memp":9239,"Meth":9240,"Mister":9241,"Public":9242,"PEA":9243,"Re":9244,"Res":9245,"SES":9246,"Sev":9247,"Salt":9248,"Taur":9249,"Ye":9250,"ai":9251,"april":9252,"biling":9253,"bachelor":9254,"crib":9255,"cowboy":9256,"dict":9257,"ease":9258,"fue":9259,"hes":9260,"kay":9261,"lamps":9262,"nap":9263,"nearest":9264,"ov":9265,"pra":9266,"pint":9267,"pile":9268,"pans":9269,"peach":9270,"rally":9271,"rug":9272,"rivers":9273,"sed":9274,"ske":9275,"samp":9276,"tt":9277,"tutor":9278,"vent":9279,"vib":9280,"vicious":9281,"wra":9282,"yu":9283,"##ov":9284,"##oll":9285,"##och":9286,"##overn":9287,"##now":9288,"##aen":9289,"##tuce":9290,"##eur":9291,"##rate":9292,"##rors":9293,"##rics":9294,"##uan":9295,"##uated":9296,"##uana":9297,"##lock":9298,"##lett":9299,"##can":9300,"##cos":9301,"##craft":9302,"##his":9303,"##geable":9304,"##power":9305,"##with":9306,"##mart":9307,"##mark":9308,"##mma":9309,"##OB":9310,"##UE":9311,"##URE":9312,"##BY":9313,"##TON":9314,"##bor":9315,"##bird":9316,"##EEPING":9317,"##fry":9318,"##form":9319,"##folk":9320,"##WEEK":9321,"##jit":9322,"##KS":9323,"thomas":9324,"##nda":9325,"##inine":9326,"##erie":9327,"tob":9328,"tole":9329,"toss":9330,"##lle":9331,"##eness":9332,"wholes":9333,"##omore":9334,"##utom":9335,"##edd":9336,"##itis":9337,"waves":9338,"onion":9339,"##arf":9340,"##arter":9341,"goof":9342,"washer":9343,"soa":9344,"soy":9345,"sta":9346,"stain":9347,"stall":9348,"stance":9349,"stern":9350,"##chand":9351,"justified":9352,"forcing":9353,"whatsit":9354,"##ths":9355,"heel":9356,"heated":9357,"##urger":9358,"sher":9359,"##irm":9360,"calend":9361,"reject":9362,"reorgan":9363,"upstate":9364,"mold":9365,"neut":9366,"##ctic":9367,"outcome":9368,"france":9369,"worms":9370,"chili":9371,"maps":9372,"makers":9373,"sued":9374,"canned":9375,"canoe":9376,"##illo":9377,"pepper":9378,"##ilings":9379,"tri":9380,"trau":9381,"triv":9382,"usage":9383,"mul":9384,"##ainted":9385,"sheets":9386,"exotic":9387,"plumb":9388,"plugs":9389,"diving":9390,"dipl":9391,"whereby":9392,"guards":9393,"saves":9394,"##igning":9395,"##ulum":9396,"##ria":9397,"armed":9398,"cobbled":9399,"precise":9400,"agencies":9401,"##allow":9402,"backs":9403,"##oret":9404,"client":9405,"enfor":9406,"##mble":9407,"##mphony":9408,"overt":9409,"daylight":9410,"##ousers":9411,"##ciation":9412,"siren":9413,"comprom":9414,"oldies":9415,"##ishes":9416,"spouse":9417,"handles":9418,"hern":9419,"bitter":9420,"shoulders":9421,"firing":9422,"##intosh":9423,"dread":9424,"lettuce":9425,"grain":9426,"fog":9427,"foam":9428,"crank":9429,"crush":9430,"recru":9431,"monet":9432,"monies":9433,"housew":9434,"##iley":9435,"useless":9436,"##istical":9437,"##LES":9438,"##urns":9439,"adam":9440,"centres":9441,"##easy":9442,"pudding":9443,"blaen":9444,"pointed":9445,"smith":9446,"tyre":9447,"fajit":9448,"straightfor":9449,"scall":9450,"scones":9451,"mars":9452,"marij":9453,"serial":9454,"mines":9455,"edges":9456,"synd":9457,"##iautom":9458,"waterh":9459,"incon":9460,"incomp":9461,"##ivision":9462,"showers":9463,"drama":9464,"pheas":9465,"ideally":9466,"parental":9467,"understandable":9468,"extract":9469,"##uded":9470,"directed":9471,"headmaster":9472,"regiment":9473,"musician":9474,"definition":9475,"infants":9476,"absor":9477,"airport":9478,"fireman":9479,"builders":9480,"entering":9481,"entered":9482,"effici":9483,"figuring":9484,"pulls":9485,"##ddings":9486,"hoppers":9487,"questionna":9488,"specialty":9489,"advis":9490,"issued":9491,"##cony":9492,"##iversary":9493,"radi":9494,"magic":9495,"equals":9496,"pollute":9497,"examples":9498,"organizing":9499,"powered":9500,"stepfather":9501,"messy":9502,"messing":9503,"pressing":9504,"telephones":9505,"biology":9506,"##ENS":9507,"collector":9508,"goldfish":9509,"voter":9510,"moder":9511,"evidently":9512,"layoffs":9513,"provost":9514,"facul":9515,"Thomas":9516,"constitution":9517,"ballot":9518,"artillery":9519,"turb":9520,"preferences":9521,"delight":9522,"speaker":9523,"mailing":9524,"seasoning":9525,"confused":9526,"selfish":9527,"semiautom":9528,"petrol":9529,"deterior":9530,"anniversary":9531,"photo":9532,"unconscious":9533,"copies":9534,"Columb":9535,"balcony":9536,"purple":9537,"drinks":9538,"Sundays":9539,"raped":9540,"courtroom":9541,"succeed":9542,"shelves":9543,"fourths":9544,"investments":9545,"contributed":9546,"contributing":9547,"calm":9548,"sectional":9549,"promised":9550,"conviction":9551,"convictions":9552,"tort":9553,"knocking":9554,"minimal":9555,"inspection":9556,"pitched":9557,"bulge":9558,"tips":9559,"contracts":9560,"institutions":9561,"assistants":9562,"internship":9563,"TWIN":9564,"##IGNING":9565,"interviewing":9566,"qualifications":9567,"ceilings":9568,"##ancs":9569,"fifths":9570,"substance":9571,"regarding":9572,"NEWSWEEK":9573,"significantly":9574,"subscription":9575,"rubber":9576,"Ann":9577,"librarian":9578,"Blue":9579,"prescriptions":9580,"rotten":9581,"innov":9582,"mechanic":9583,"Institute":9584,"freedoms":9585,"robbing":9586,"uniforms":9587,"travell":9588,"embroid":9589,"##urgers":9590,"annoyed":9591,"bleeding":9592,"ethnic":9593,"wipe":9594,"adjusted":9595,"fluid":9596,"##ademy":9597,"wardro":9598,"attending":9599,"arrangement":9600,"emergencies":9601,"Seven":9602,"fabric":9603,"sacked":9604,"tearing":9605,"puppies":9606,"navy":9607,"##zzle":9608,"regulate":9609,"temporarily":9610,"administrators":9611,"Brad":9612,"pouring":9613,"Symphony":9614,"palfry":9615,"##EAP":9616,"consequently":9617,"officials":9618,"multiple":9619,"lowestoft":9620,"obligation":9621,"flooding":9622,"Charl":9623,"bowling":9624,"widow":9625,"academic":9626,"briefly":9627,"##EKEEPING":9628,"steering":9629,"certified":9630,"fetch":9631,"sophomore":9632,"stoke":9633,"deliberate":9634,"deliberately":9635,"campaigns":9636,"Northern":9637,"pursue":9638,"##keeper":9639,"stereoty":9640,"dramatically":9641,"slept":9642,"advertisements":9643,"Turkey":9644,"landscape":9645,"HOUSEKEEPING":9646,"pupils":9647,"##iatric":9648,"controversy":9649,"Eagles":9650,"Volvo":9651,"revenue":9652,"surface":9653,"overcrowded":9654,"moisture":9655,"undertaking":9656,"airplane":9657,"burglar":9658,"jewel":9659,"screening":9660,"despite":9661,"Stephen":9662,"Earth":9663,"freshman":9664,"hazard":9665,"integr":9666,"enthusi":9667,"vitamins":9668,"relevant":9669,"conclusion":9670,"British":9671,"Kurds":9672,"wanna":9673,"pendulum":9674,"muffler":9675,"repaired":9676,"semitone":9677,"Honeywell":9678,"boyfriend":9679,"buffalos":9680,"Academy":9681,"steril":9682,"prevalent":9683,"blanket":9684,"accustomed":9685,"metropolitan":9686,"semicircle":9687,"Bruce":9688,"DESIGNING":9689,"Memphis":9690,"Method":9691,"SESAME":9692,"bilingual":9693,"hesit":9694,"##chandise":9695,"blaenau":9696,"straightforward":9697,"marijuana":9698,"embroidery":9699,"AW":9700,"Aud":9701,"Amar":9702,"ALL":9703,"Aik":9704,"Ber":9705,"Bach":9706,"Cock":9707,"Ferr":9708,"Gee":9709,"Jama":9710,"LE":9711,"Lar":9712,"Little":9713,"Lond":9714,"Leb":9715,"Lakers":9716,"Mon":9717,"Mus":9718,"Mem":9719,"Morm":9720,"Moon":9721,"Mark":9722,"Maine":9723,"Nations":9724,"Right":9725,"Rowl":9726,"SE":9727,"Sty":9728,"Sub":9729,"Sup":9730,"Saints":9731,"Tig":9732,"Um":9733,"WIN":9734,"bout":9735,"bind":9736,"biz":9737,"bunk":9738,"cust":9739,"cred":9740,"civic":9741,"dome":9742,"dating":9743,"daff":9744,"fever":9745,"ferry":9746,"guts":9747,"joy":9748,"joc":9749,"lid":9750,"lun":9751,"lex":9752,"nan":9753,"nons":9754,"oeu":9755,"pony":9756,"paul":9757,"rer":9758,"ras":9759,"rows":9760,"sust":9761,"seal":9762,"witch":9763,"wrest":9764,"wrap":9765,"yell":9766,"##oot":9767,"##occ":9768,"##nat":9769,"##aven":9770,"##aire":9771,"##tion":9772,"##rowing":9773,"##rants":9774,"##uum":9775,"##uments":9776,"##com":9777,"##cue":9778,"##ckey":9779,"##hear":9780,"##gled":9781,"##py":9782,"##pir":9783,"##pus":9784,"##mm":9785,"##OG":9786,"##TE":9787,"##bon":9788,"##bury":9789,"##zar":9790,"##MAN":9791,"##fter":9792,"##fare":9793,"##LINE":9794,"##AP":9795,"##XAS":9796,"threes":9797,"theories":9798,"##inity":9799,"##erving":9800,"##erfect":9801,"tone":9802,"##rets":9803,"hal":9804,"inland":9805,"injust":9806,"inhal":9807,"##onge":9808,"##uten":9809,"##edge":9810,"##itzer":9811,"##arre":9812,"##arate":9813,"sod":9814,"sole":9815,"##icies":9816,"lil":9817,"lies":9818,"stabil":9819,"##entals":9820,"##lyde":9821,"forming":9822,"sector":9823,"##ima":9824,"##imental":9825,"abilities":9826,"##thia":9827,"heinous":9828,"shake":9829,"shifted":9830,"##irns":9831,"reb":9832,"rebe":9833,"##auff":9834,"asks":9835,"neural":9836,"theme":9837,"anyplace":9838,"chuck":9839,"suic":9840,"##eanor":9841,"##illa":9842,"##illing":9843,"timing":9844,"proceed":9845,"trousers":9846,"##artz":9847,"meets":9848,"tagam":9849,"shells":9850,"##unks":9851,"excess":9852,"divers":9853,"diapers":9854,"##pell":9855,"##anda":9856,"guin":9857,"##igent":9858,"##ulations":9859,"coats":9860,"preview":9861,"backing":9862,"quart":9863,"queen":9864,"clin":9865,"click":9866,"veer":9867,"manchester":9868,"overl":9869,"intense":9870,"offhand":9871,"##ifting":9872,"pood":9873,"coupons":9874,"whichever":9875,"bracket":9876,"partners":9877,"spin":9878,"spar":9879,"spicy":9880,"herring":9881,"thrilled":9882,"##osis":9883,"amate":9884,"ammun":9885,"##ags":9886,"roam":9887,"hilly":9888,"keepers":9889,"perish":9890,"reads":9891,"happily":9892,"cracks":9893,"grit":9894,"##pton":9895,"eights":9896,"lease":9897,"pub":9898,"puff":9899,"##veland":9900,"\"\"-":9901,"##aping":9902,"##apolis":9903,"smarter":9904,"remembers":9905,"curse":9906,"flies":9907,"fleas":9908,"##onduct":9909,"scope":9910,"##quite":9911,"marking":9912,"turnover":9913,"reserved":9914,"serves":9915,"miniv":9916,"edition":9917,"appet":9918,"approve":9919,"strung":9920,"decade":9921,"Texoma":9922,"inval":9923,"invading":9924,"easiest":9925,"commute":9926,"commits":9927,"##resp":9928,"dragging":9929,"insight":9930,"insul":9931,"exped":9932,"expression":9933,"centimeters":9934,"indic":9935,"indication":9936,"indicated":9937,"believes":9938,"attic":9939,"setup":9940,"sweep":9941,"policies":9942,"generals":9943,"midpoint":9944,"##onto":9945,"param":9946,"regulation":9947,"skipping":9948,"barriers":9949,"educate":9950,"experts":9951,"glob":9952,"deserves":9953,"retiring":9954,"publicized":9955,"Steven":9956,"programmer":9957,"healthier":9958,"presence":9959,"kills":9960,"imagination":9961,"moms":9962,"##umption":9963,"agenda":9964,"proposed":9965,"corrid":9966,"corresp":9967,"felony":9968,"concerning":9969,"doctorate":9970,"millimet":9971,"disco":9972,"basements":9973,"freeway":9974,"specials":9975,"brook":9976,"advocate":9977,"fished":9978,"dinners":9979,"nationalized":9980,"##aneous":9981,"vacuum":9982,"transition":9983,"deaths":9984,"polls":9985,"ruin":9986,"THIR":9987,"diagn":9988,"continues":9989,"wintertime":9990,"##ltry":9991,"smokers":9992,"strips":9993,"tommy":9994,"productivity":9995,"label":9996,"##awed":9997,"admire":9998,"mode":9999,"shootings":10000,"operas":10001,"formula":10002,"roughing":10003,"demograph":10004,"superv":10005,"packaging":10006,"squir":10007,"##REE":10008,"drying":10009,"depot":10010,"##OUT":10011,"physi":10012,"Penney":10013,"##appy":10014,"##ATHER":10015,"balances":10016,"purse":10017,"inflation":10018,"hunter":10019,"sewed":10020,"civilian":10021,"civilized":10022,"complained":10023,"Richard":10024,"bathing":10025,"presentation":10026,"spreading":10027,"approved":10028,"approached":10029,"minorities":10030,"carts":10031,"##ervation":10032,"Corpus":10033,"##roph":10034,"Midwest":10035,"saus":10036,"measures":10037,"replacing":10038,"threatened":10039,"disciplined":10040,"tormore":10041,"starving":10042,"minims":10043,"administer":10044,"iris":10045,"keys":10046,"Scot":10047,"capabilities":10048,"beard":10049,"statistical":10050,"includes":10051,"granny":10052,"alternator":10053,"Indianapolis":10054,"execution":10055,"performing":10056,"knowledgeable":10057,"reference":10058,"qualification":10059,"survived":10060,"survival":10061,"cabinet":10062,"cabins":10063,"claims":10064,"presidential":10065,"fingerpr":10066,"Twins":10067,"laboratory":10068,"paddle":10069,"comparing":10070,"demanding":10071,"ringing":10072,"urine":10073,"unlisted":10074,"emotions":10075,"gentry":10076,"religiously":10077,"audit":10078,"kneec":10079,"rehabilitate":10080,"classrooms":10081,"crawl":10082,"delivery":10083,"legislature":10084,"expertise":10085,"concentrated":10086,"tubes":10087,"##ACK":10088,"lieuten":10089,"Cadillacs":10090,"Brown":10091,"categories":10092,"scott":10093,"jackets":10094,"util":10095,"administrative":10096,"emotionally":10097,"##ynn":10098,"exclam":10099,"documents":10100,"translation":10101,"tolerate":10102,"Price":10103,"Robin":10104,"multip":10105,"terminal":10106,"chopped":10107,"tricky":10108,"Charles":10109,"occupied":10110,"reminds":10111,"Falls":10112,"##UMER":10113,"bargaining":10114,"titles":10115,"##TLES":10116,"warnings":10117,"disposition":10118,"Costa":10119,"shunters":10120,"shadow":10121,"failure":10122,"Baylor":10123,"isolated":10124,"arrested":10125,"adoption":10126,"HOUSE":10127,"sized":10128,"renew":10129,"rabbits":10130,"hamburger":10131,"hamburgers":10132,"enforcement":10133,"curbside":10134,"controversial":10135,"EDGE":10136,"bodies":10137,"allergic":10138,"motorcycle":10139,"Portland":10140,"bidding":10141,"poultry":10142,"troubles":10143,"relieve":10144,"Schwartz":10145,"reimburse":10146,"Paris":10147,"epis":10148,"Hollywood":10149,"TEXAS":10150,"inevitably":10151,"Oldsmobile":10152,"Douglas":10153,"sample":10154,"##iotics":10155,"merely":10156,"antibiotics":10157,"mosquitoes":10158,"Federal":10159,"lonely":10160,"astronomical":10161,"CONSUMER":10162,"MAGAZ":10163,"lathe":10164,"perpet":10165,"innocence":10166,"Cleveland":10167,"Junior":10168,"PEAKS":10169,"Taurus":10170,"Yellow":10171,"fuels":10172,"compromise":10173,"fajitas":10174,"syndrome":10175,"inconven":10176,"semiautomatic":10177,"jewelry":10178,"Methodist":10179,"Amarillo":10180,"Aikman":10181,"London":10182,"Leban":10183,"Memorial":10184,"Rowlett":10185,"Styrofoam":10186,"daffod":10187,"oeuv":10188,"neuralgia":10189,"tagamet":10190,"ammunition":10191,"MAGAZINE":10192,"All":10193,"Allen":10194,"Bean":10195,"Broad":10196,"Cam":10197,"COL":10198,"COUN":10199,"DA":10200,"Die":10201,"Eve":10202,"Eight":10203,"FR":10204,"Greek":10205,"GOD":10206,"Govern":10207,"HU":10208,"Hait":10209,"HOOD":10210,"HERAL":10211,"KN":10212,"Las":10213,"Laur":10214,"LIT":10215,"LEAP":10216,"My":10217,"Mound":10218,"Mel":10219,"Mag":10220,"Mets":10221,"MER":10222,"Miam":10223,"Nicar":10224,"Out":10225,"Ply":10226,"Pal":10227,"Pas":10228,"Ra":10229,"Ranger":10230,"RED":10231,"SM":10232,"SC":10233,"Sou":10234,"Sier":10235,"SAT":10236,"Tor":10237,"Van":10238,"Yel":10239,"apr":10240,"auction":10241,"bob":10242,"bib":10243,"bisc":10244,"boun":10245,"dea":10246,"dere":10247,"dual":10248,"eg":10249,"fid":10250,"fumes":10251,"galley":10252,"geor":10253,"gifted":10254,"hen":10255,"hid":10256,"heal":10257,"hates":10258,"jer":10259,"jane":10260,"jaw":10261,"kiss":10262,"karate":10263,"litt":10264,"lens":10265,"lamp":10266,"lanc":10267,"lingu":10268,"mac":10269,"nit":10270,"ok":10271,"oy":10272,"oaks":10273,"rod":10274,"rack":10275,"rated":10276,"rowing":10277,"seam":10278,"sesame":10279,"tat":10280,"tan":10281,"tact":10282,"tire":10283,"tears":10284,"vine":10285,"vap":10286,"vested":10287,"wip":10288,"zone":10289,"##obell":10290,"##aken":10291,"##say":10292,"##right":10293,"##rum":10294,"##rates":10295,"##ront":10296,"##ups":10297,"##lim":10298,"##list":10299,"##kop":10300,"##dom":10301,"##dge":10302,"##gen":10303,"##pen":10304,"##pting":10305,"##wind":10306,"##burg":10307,"##ygen":10308,"##zed":10309,"##zzy":10310,"##ITY":10311,"##vil":10312,"##fire":10313,"##jo":10314,"##Perfect":10315,"##VIS":10316,"tho":10317,"theoret":10318,"##oured":10319,"##atical":10320,"##atics":10321,"##erick":10322,"toll":10323,"##inge":10324,"##inger":10325,"##llous":10326,"##esh":10327,"##orah":10328,"inverted":10329,"##vellous":10330,"##stal":10331,"whil":10332,"##ita":10333,"##itable":10334,"##etch":10335,"##ann":10336,"##seling":10337,"##aratus":10338,"hugh":10339,"sopr":10340,"##idency":10341,"liking":10342,"butcher":10343,"##uster":10344,"stair":10345,"stressed":10346,"stole":10347,"##lying":10348,"##lymp":10349,"likewise":10350,"anne":10351,"anger":10352,"seque":10353,"##alk":10354,"##thy":10355,"##acinth":10356,"shy":10357,"shit":10358,"shout":10359,"shred":10360,"sheds":10361,"##iro":10362,"##ros":10363,"allev":10364,"molest":10365,"##raph":10366,"outward":10367,"output":10368,"outstanding":10369,"frying":10370,"fraction":10371,"fruits":10372,"chart":10373,"sup":10374,"suing":10375,"cann":10376,"##cend":10377,"##amental":10378,"##ampton":10379,"pebbles":10380,"tracks":10381,"users":10382,"mun":10383,"tooling":10384,"extern":10385,"pla":10386,"plough":10387,"dile":10388,"##ourt":10389,"##pevine":10390,"guests":10391,"##ads":10392,"##rix":10393,"coke":10394,"coord":10395,"coinc":10396,"prest":10397,"precious":10398,"agnes":10399,"##itect":10400,"bypass":10401,"clou":10402,"clipp":10403,"manip":10404,"overhead":10405,"intended":10406,"##ifer":10407,"##active":10408,"actors":10409,"##hmen":10410,"carter":10411,"carries":10412,"loft":10413,"loses":10414,"betno":10415,"partially":10416,"spur":10417,"spite":10418,"kidna":10419,"interaction":10420,"throws":10421,"amuse":10422,"##agu":10423,"##ager":10424,"stuffed":10425,"unp":10426,"unex":10427,"unable":10428,"united":10429,"unrest":10430,"wok":10431,"woke":10432,"drought":10433,"##dem":10434,"perennial":10435,"##ection":10436,"readily":10437,"hearts":10438,"rounded":10439,"crunch":10440,"grating":10441,"housekeeper":10442,"harwich":10443,"##merged":10444,"blond":10445,"endless":10446,"\"\"\"":10447,"##irect":10448,"typed":10449,"failing":10450,"##sban":10451,"margin":10452,"marvellous":10453,"boiling":10454,"contr":10455,"contam":10456,"contest":10457,"contemp":10458,"diseases":10459,"fifteenth":10460,"##ansion":10461,"apparatus":10462,"impulse":10463,"wartime":10464,"cataly":10465,"##ocks":10466,"##ensed":10467,"mates":10468,"##reshing":10469,"drafting":10470,"indirect":10471,"defe":10472,"Chris":10473,"##iances":10474,"conscience":10475,"##tsin":10476,"dealings":10477,"generated":10478,"midnight":10479,"submerged":10480,"bairns":10481,"menai":10482,"hockey":10483,"paroch":10484,"finishes":10485,"awake":10486,"skating":10487,"musicians":10488,"experiments":10489,"planet":10490,"glory":10491,"glued":10492,"descend":10493,"paints":10494,"completed":10495,"##ogan":10496,"drip":10497,"Street":10498,"builder":10499,"forew":10500,"crap":10501,"crappie":10502,"crafty":10503,"afflu":10504,"grader":10505,"gradient":10506,"##steries":10507,"banking":10508,"passion":10509,"winner":10510,"efforts":10511,"mediant":10512,"communicate":10513,"excuses":10514,"woodwork":10515,"largely":10516,"stored":10517,"visual":10518,"assault":10519,"assaul":10520,"assumption":10521,"transit":10522,"transpl":10523,"transfor":10524,"socialized":10525,"motors":10526,"recorder":10527,"legally":10528,"THREE":10529,"sneak":10530,"charab":10531,"travels":10532,"continual":10533,"patch":10534,"redone":10535,"reducing":10536,"fanatic":10537,"effected":10538,"bias":10539,"##iffer":10540,"processor":10541,"garages":10542,"golfers":10543,"##END":10544,"stripped":10545,"technician":10546,"forgetting":10547,"admissions":10548,"emission":10549,"layoff":10550,"provider":10551,"plantation":10552,"That":10553,"constable":10554,"supervision":10555,"tempted":10556,"##nold":10557,"Army":10558,"##RED":10559,"confined":10560,"professionally":10561,"sweater":10562,"douglas":10563,"dougie":10564,"filthy":10565,"estim":10566,"estimate":10567,"prisoner":10568,"prisoners":10569,"respects":10570,"respected":10571,"anticip":10572,"damp":10573,"violin":10574,"murderers":10575,"affecting":10576,"announced":10577,"ironic":10578,"suffered":10579,"encl":10580,"reaching":10581,"reaches":10582,"lawsuits":10583,"ranks":10584,"honesty":10585,"cartoon":10586,"printing":10587,"limitations":10588,"combined":10589,"gallop":10590,"variation":10591,"Corvet":10592,"Canal":10593,"deborah":10594,"calves":10595,"juror":10596,"portobell":10597,"##pany":10598,"markets":10599,"satisfying":10600,"influences":10601,"hyacinth":10602,"loaning":10603,"belongs":10604,"improvements":10605,"##IDE":10606,"bicycling":10607,"##ETTER":10608,"freshwater":10609,"describing":10610,"wheat":10611,"meatball":10612,"intrig":10613,"explaining":10614,"Inc":10615,"suggestion":10616,"sporty":10617,"relaxation":10618,"fellows":10619,"fellowship":10620,"selective":10621,"disappeared":10622,"misdem":10623,"interviews":10624,"Russians":10625,"licence":10626,"qualify":10627,"volunteered":10628,"accidental":10629,"associate":10630,"frustration":10631,"bosses":10632,"froze":10633,"##ICE":10634,"repeats":10635,"introduction":10636,"immigrant":10637,"##ophone":10638,"applying":10639,"detailed":10640,"traditionally":10641,"Bulls":10642,"micro":10643,"mechanics":10644,"representative":10645,"robberies":10646,"permitted":10647,"##ILL":10648,"##ILY":10649,"instructions":10650,"temperatures":10651,"measurement":10652,"Atlantic":10653,"bolts":10654,"Expressway":10655,"consistently":10656,"consistency":10657,"Road":10658,"romantic":10659,"existence":10660,"fluff":10661,"victims":10662,"eliminated":10663,"profitable":10664,"fascinated":10665,"deny":10666,"deerness":10667,"focused":10668,"pilots":10669,"regulated":10670,"merit":10671,"##IVING":10672,"Braz":10673,"Daddy":10674,"##URDAY":10675,"rebuilt":10676,"decorated":10677,"decorating":10678,"germany":10679,"needlework":10680,"translate":10681,"Asia":10682,"Asians":10683,"tolerant":10684,"textbook":10685,"acquired":10686,"boundaries":10687,"asthm":10688,"permanently":10689,"perceiving":10690,"accomplished":10691,"Republicans":10692,"dentist":10693,"searching":10694,"minister":10695,"heavier":10696,"certific":10697,"powers":10698,"melted":10699,"boost":10700,"oxygen":10701,"aiming":10702,"bonding":10703,"converted":10704,"consultant":10705,"ratings":10706,"rebuilding":10707,"##regard":10708,"prosecutor":10709,"lobster":10710,"britain":10711,"purchasing":10712,"irritating":10713,"taxpayer":10714,"initiated":10715,"Target":10716,"codes":10717,"sizes":10718,"journalism":10719,"WordPerfect":10720,"rabbit":10721,"peeves":10722,"backpacking":10723,"Hispanics":10724,"Dursban":10725,"Eagle":10726,"update":10727,"architect":10728,"editorial":10729,"surrounding":10730,"joints":10731,"homemade":10732,"WHAT":10733,"venison":10734,"##areness":10735,"thunderst":10736,"extrovert":10737,"extroverts":10738,"desperately":10739,"discouraging":10740,"evaluate":10741,"cynthia":10742,"bundle":10743,"catalogs":10744,"hurricanes":10745,"##ATIONAL":10746,"tornados":10747,"REPORTS":10748,"##keeping":10749,"privilege":10750,"remodeled":10751,"Inter":10752,"bridges":10753,"strangest":10754,"decrease":10755,"extraordinary":10756,"intellectual":10757,"unlikely":10758,"adequate":10759,"##weight":10760,"phrase":10761,"symbol":10762,"fiancee":10763,"ambulance":10764,"precautions":10765,"Enid":10766,"Korea":10767,"Neil":10768,"storage":10769,"condominium":10770,"ROBIN":10771,"incorporate":10772,"Miata":10773,"sheriff":10774,"calendar":10775,"trivial":10776,"plumbing":10777,"hernia":10778,"questionnaire":10779,"Audi":10780,"Larry":10781,"Supreme":10782,"bizarre":10783,"jockey":10784,"lexicon":10785,"sustain":10786,"wrestling":10787,"suicide":10788,"previews":10789,"global":10790,"correspond":10791,"THIRTY":10792,"lieutenant":10793,"Schwartzkop":10794,"Diego":10795,"HERALD":10796,"LITTLE":10797,"Miami":10798,"Plymouth":10799,"SATURDAY":10800,"Yeltsin":10801,"theoretically":10802,"whilst":10803,"external":10804,"betnov":10805,"parochial":10806,"portobello":10807,"Schwartzkopf":10808,"Ast":10809,"Bon":10810,"Bills":10811,"Bron":10812,"Cast":10813,"Celt":10814,"Court":10815,"Dah":10816,"Domin":10817,"FIE":10818,"Guate":10819,"Ham":10820,"Ir":10821,"Id":10822,"ILL":10823,"Jay":10824,"Jean":10825,"Jord":10826,"Jane":10827,"Kro":10828,"Kyle":10829,"La":10830,"Line":10831,"Lex":10832,"MA":10833,"MAC":10834,"Masters":10835,"Ninet":10836,"NATIONAL":10837,"Qu":10838,"Ron":10839,"Ree":10840,"Ross":10841,"SL":10842,"Sun":10843,"TR":10844,"Veg":10845,"Wy":10846,"YE":10847,"Year":10848,"YOUR":10849,"ax":10850,"aven":10851,"austin":10852,"bent":10853,"cork":10854,"cease":10855,"dare":10856,"derm":10857,"deeper":10858,"ec":10859,"ech":10860,"fou":10861,"fian":10862,"fitted":10863,"gad":10864,"hou":10865,"hom":10866,"hind":10867,"jar":10868,"jars":10869,"jetty":10870,"jelly":10871,"lor":10872,"lorry":10873,"lane":10874,"latch":10875,"lucr":10876,"mack":10877,"nick":10878,"oct":10879,"ped":10880,"pac":10881,"pod":10882,"poo":10883,"pam":10884,"pall":10885,"pots":10886,"rus":10887,"rum":10888,"ticking":10889,"vir":10890,"vag":10891,"vital":10892,"wrist":10893,"wiring":10894,"yona":10895,"yelling":10896,"##oop":10897,"##oque":10898,"##ae":10899,"##tz":10900,"##tic":10901,"##rick":10902,"##iour":10903,"##iency":10904,"##umber":10905,"##li":10906,"##life":10907,"##cl":10908,"##c3":10909,"##houses":10910,"##wau":10911,"##wick":10912,"##moon":10913,"##TOR":10914,"##TION":10915,"##born":10916,"##bike":10917,"##ynt":10918,"##ythes":10919,"##IX":10920,"##IES":10921,"##fy":10922,"##HR":10923,"##LIN":10924,"##Kin":10925,"##JA":10926,"##FATHER":10927,"##nded":10928,"##ndous":10929,"##inent":10930,"##inations":10931,"##inarily":10932,"##atable":10933,"toe":10934,"toes":10935,"##resh":10936,"##rendous":10937,"##lla":10938,"italian":10939,"##eny":10940,"weld":10941,"weddings":10942,"haze":10943,"harass":10944,"##orse":10945,"##orters":10946,"inmates":10947,"##onent":10948,"##stitution":10949,"##otte":10950,"##eded":10951,"##itu":10952,"##itage":10953,"wax":10954,"wave":10955,"##eters":10956,"##eties":10957,"##etto":10958,"##anie":10959,"##aray":10960,"##arms":10961,"##arians":10962,"##arzen":10963,"hun":10964,"goo":10965,"soak":10966,"liable":10967,"stur":10968,"stake":10969,"##isible":10970,"##chy":10971,"forwards":10972,"formed":10973,"seg":10974,"sect":10975,"sends":10976,"##alach":10977,"##thony":10978,"##theless":10979,"heater":10980,"##acity":10981,"##acco":10982,"noticeable":10983,"shipped":10984,"shouting":10985,"##odes":10986,"##opical":10987,"withd":10988,"mysteries":10989,"caul":10990,"##rolet":10991,"ree":10992,"recept":10993,"reception":10994,"upgra":10995,"##ause":10996,"neil":10997,"noon":10998,"noises":10999,"##rafts":11000,"outline":11001,"##terior":11002,"churning":11003,"albu":11004,"alien":11005,"maid":11006,"sul":11007,"##asota":11008,"##amm":11009,"##illion":11010,"peat":11011,"##ilene":11012,"prol":11013,"tropical":11014,"twin":11015,"twir":11016,"##artial":11017,"tap":11018,"##erson":11019,"##abase":11020,"plas":11021,"##pex":11022,"##ando":11023,"gulf":11024,"##eeze":11025,"##igl":11026,"##ola":11027,"##adas":11028,"##riving":11029,"##ieces":11030,"pref":11031,"bully":11032,"##alled":11033,"wayb":11034,"quota":11035,"confer":11036,"clutch":11037,"##mbled":11038,"overtime":11039,"##actice":11040,"##amel":11041,"ponds":11042,"pawn":11043,"stump":11044,"lover":11045,"bru":11046,"underline":11047,"makeup":11048,"nevertheless":11049,"partner":11050,"preach":11051,"spark":11052,"##agen":11053,"rover":11054,"roster":11055,"firear":11056,"payroll":11057,"##ealous":11058,"##rence":11059,"lethal":11060,"grumb":11061,"lasting":11062,"housework":11063,"harsh":11064,"##plex":11065,"##istent":11066,"trading":11067,"leagues":11068,"##MBO":11069,"slipped":11070,"strap":11071,"blink":11072,"blues":11073,"persons":11074,"##apse":11075,"collar":11076,"collapse":11077,"curly":11078,"flash":11079,"scythes":11080,"##quir":11081,"contra":11082,"turnout":11083,"sitters":11084,"disrupt":11085,"dislike":11086,"reserve":11087,"wonderfully":11088,"appears":11089,"stray":11090,"imprison":11091,"warfare":11092,"catering":11093,"invisible":11094,"commut":11095,"insane":11096,"seeming":11097,"indiffer":11098,"secure":11099,"Chuck":11100,"pickles":11101,"raises":11102,"parenting":11103,"repet":11104,"listed":11105,"##phur":11106,"paperwork":11107,"midway":11108,"bail":11109,"campground":11110,"opener":11111,"studs":11112,"paroled":11113,"restra":11114,"restless":11115,"accents":11116,"awareness":11117,"skir":11118,"barge":11119,"##ubs":11120,"plank":11121,"salmon":11122,"missiles":11123,"prize":11124,"returning":11125,"Stall":11126,"##sels":11127,"locations":11128,"forecast":11129,"metre":11130,"mains":11131,"affairs":11132,"horrendous":11133,"hotter":11134,"##ails":11135,"driveway":11136,"##practice":11137,"windy":11138,"stationary":11139,"walker":11140,"##insula":11141,"lightning":11142,"circling":11143,"circulation":11144,"lands":11145,"holds":11146,"##tedly":11147,"solic":11148,"produces":11149,"pencil":11150,"peninsula":11151,"profits":11152,"condo":11153,"Christians":11154,"##ieth":11155,"supportive":11156,"sociology":11157,"##aho":11158,"equality":11159,"equitable":11160,"##ocation":11161,"snack":11162,"snowing":11163,"##berg":11164,"creating":11165,"creates":11166,"brands":11167,"jolly":11168,"reduction":11169,"hoses":11170,"beauty":11171,"bikes":11172,"##aky":11173,"smoked":11174,"practices":11175,"staffing":11176,"strangely":11177,"##ORS":11178,"counseling":11179,"evil":11180,"evils":11181,"operations":11182,"refu":11183,"reflect":11184,"Thir":11185,"Three":11186,"fights":11187,"carpent":11188,"mixes":11189,"delayed":11190,"accountant":11191,"leads":11192,"confess":11193,"conform":11194,"confident":11195,"semin":11196,"roller":11197,"rollers":11198,"Caravan":11199,"filmed":11200,"sandstone":11201,"physician":11202,"esteem":11203,"Frank":11204,"antic":11205,"quarterbacks":11206,"committees":11207,"baker":11208,"bakeries":11209,"videot":11210,"borrowing":11211,"uncertain":11212,"appliance":11213,"appliances":11214,"norway":11215,"ironing":11216,"coping":11217,"screams":11218,"postcard":11219,"fundamental":11220,"switching":11221,"inflamm":11222,"weirdest":11223,"versions":11224,"joiners":11225,"beaches":11226,"##ISE":11227,"sunk":11228,"wildlife":11229,"hairs":11230,"primitive":11231,"backgrounds":11232,"voices":11233,"Canadian":11234,"viewpoints":11235,"measuring":11236,"##egger":11237,"disciplinary":11238,"belonging":11239,"lenient":11240,"quietly":11241,"##ilsay":11242,"earliest":11243,"territorial":11244,"circumference":11245,"explains":11246,"Baltic":11247,"outlook":11248,"gains":11249,"##diction":11250,"disputes":11251,"instituted":11252,"suggesting":11253,"apiece":11254,"shuttle":11255,"nicest":11256,"recommendation":11257,"nonf":11258,"references":11259,"referring":11260,"bathrooms":11261,"bonny":11262,"frames":11263,"fantas":11264,"lumber":11265,"lengths":11266,"flexibility":11267,"negatives":11268,"Parkland":11269,"claimed":11270,"speedy":11271,"scrapper":11272,"designated":11273,"crowds":11274,"Anthony":11275,"piper":11276,"casting":11277,"females":11278,"##NEIL":11279,"beltway":11280,"earthqu":11281,"addresses":11282,"McKin":11283,"peaceful":11284,"cruises":11285,"maintained":11286,"bombs":11287,"bombed":11288,"mechanism":11289,"strawberry":11290,"ghetto":11291,"progressing":11292,"robbed":11293,"matches":11294,"What":11295,"unlo":11296,"suspension":11297,"Augustine":11298,"Company":11299,"stressful":11300,"resolution":11301,"psychological":11302,"Johnny":11303,"auditor":11304,"bolt":11305,"##heads":11306,"grabbing":11307,"antelope":11308,"authorities":11309,"CHILD":11310,"ethic":11311,"bullets":11312,"identical":11313,"blessing":11314,"wards":11315,"dupl":11316,"fearful":11317,"instrumental":11318,"Trans":11319,"weighs":11320,"weighed":11321,"mercy":11322,"ovens":11323,"improving":11324,"methods":11325,"freezer":11326,"exclude":11327,"exclusive":11328,"anchors":11329,"negotiated":11330,"Asian":11331,"sailors":11332,"behaviour":11333,"Thursdays":11334,"citizenship":11335,"aggravated":11336,"Prime":11337,"rushed":11338,"Patri":11339,"snakes":11340,"altered":11341,"functional":11342,"occupation":11343,"width":11344,"compensate":11345,"perceive":11346,"reliability":11347,"undo":11348,"stepping":11349,"blankets":11350,"distributor":11351,"ROG":11352,"fetched":11353,"graphic":11354,"dimensions":11355,"tackle":11356,"solicitors":11357,"counselors":11358,"veto":11359,"consultants":11360,"##TRY":11361,"##quarium":11362,"Macintosh":11363,"Provo":11364,"Switzer":11365,"linked":11366,"mutual":11367,"fondue":11368,"embarrassing":11369,"Orientals":11370,"honeymoon":11371,"captain":11372,"spectrum":11373,"declare":11374,"landscaping":11375,"malpractice":11376,"cooperation":11377,"installed":11378,"agriculture":11379,"assembly":11380,"peebles":11381,"monitoring":11382,"disturbing":11383,"Huh":11384,"##mala":11385,"supplementary":11386,"tramps":11387,"infection":11388,"semiconduct":11389,"calculator":11390,"PRES":11391,"theaters":11392,"allergies":11393,"quoted":11394,"grinding":11395,"##ANTUM":11396,"overcrowding":11397,"motorcycles":11398,"troubled":11399,"treadmill":11400,"desperate":11401,"exhibit":11402,"Schwarzen":11403,"reimburs":11404,"cynical":11405,"pantom":11406,"quantity":11407,"implied":11408,"hurricane":11409,"frequent":11410,"frequency":11411,"tornadoes":11412,"Roberts":11413,"orchestra":11414,"synthesizer":11415,"Coppell":11416,"sponsored":11417,"unhappy":11418,"persuaded":11419,"furnishings":11420,"Cuba":11421,"Flower":11422,"inherent":11423,"peoples":11424,"quilting":11425,"delegate":11426,"explosion":11427,"scheduled":11428,"selkirkshire":11429,"Mesquite":11430,"TURTLES":11431,"jimmy":11432,"orthoped":11433,"chlorine":11434,"prejudice":11435,"councillors":11436,"Abilene":11437,"NINJA":11438,"Saturns":11439,"Sarasota":11440,"ditches":11441,"peanut":11442,"mansion":11443,"afghans":11444,"display":11445,"Chevrolet":11446,"parcel":11447,"southwesterly":11448,"surplus":11449,"spreadsheet":11450,"biographies":11451,"QUANTUM":11452,"bingo":11453,"tinker":11454,"acoustics":11455,"satellite":11456,"COSBY":11457,"tobacco":11458,"wholesal":11459,"reorganization":11460,"mulch":11461,"diploma":11462,"housewife":11463,"radiator":11464,"faculty":11465,"unconsciously":11466,"Columbia":11467,"wardrobe":11468,"Charlotte":11469,"Jamaica":11470,"LEHR":11471,"Mormon":11472,"Tigon":11473,"rasp":11474,"Yellowstone":11475,"inconvenient":11476,"daffodils":11477,"oeuvres":11478,"COUNTRY":11479,"GODFATHER":11480,"Magic":11481,"Nicaragu":11482,"Raiders":11483,"Toronto":11484,"bouncing":11485,"egilsay":11486,"wiped":11487,"soprano":11488,"dilemma":11489,"catalytic":11490,"charabancs":11491,"Guatemala":11492,"ILLUS":11493,"Kroger":11494,"Lexus":11495,"SLICK":11496,"Vegas":11497,"fianc3":11498,"lorries":11499,"lucrative":11500,"sturdy":11501,"albums":11502,"conferences":11503,"McKinney":11504,"Switzerland":11505,"Schwarzenegger":11506,"LEHRER":11507,"Act":11508,"Bah":11509,"Beth":11510,"Beach":11511,"Billy":11512,"Bobby":11513,"Cou":11514,"Care":11515,"Cole":11516,"CRY":11517,"Course":11518,"CITY":11519,"DO":11520,"Dean":11521,"Dun":11522,"Dana":11523,"Fire":11524,"Fost":11525,"FOUR":11526,"FAM":11527,"Hel":11528,"House":11529,"HEN":11530,"HARD":11531,"JO":11532,"Jan":11533,"Jose":11534,"JAG":11535,"Ls":11536,"Lith":11537,"Lind":11538,"Lee":11539,"Law":11540,"LOU":11541,"Leg":11542,"LIVING":11543,"Mo":11544,"MC":11545,"Mor":11546,"Mau":11547,"Mount":11548,"Mits":11549,"Norm":11550,"Nash":11551,"On":11552,"Ow":11553,"OP":11554,"Ore":11555,"Oper":11556,"Oah":11557,"OUT":11558,"Pe":11559,"Pur":11560,"Pack":11561,"Pens":11562,"Rod":11563,"Rad":11564,"ROS":11565,"Rica":11566,"Roman":11567,"Randy":11568,"Si":11569,"Sant":11570,"Sper":11571,"Tin":11572,"Test":11573,"Vi":11574,"Val":11575,"VIS":11576,"Way":11577,"Walt":11578,"WEEK":11579,"au":11580,"amend":11581,"bust":11582,"bree":11583,"brew":11584,"cath":11585,"cud":11586,"dil":11587,"dab":11588,"dub":11589,"ea":11590,"ei":11591,"eerie":11592,"fest":11593,"faces":11594,"fountain":11595,"fears":11596,"gay":11597,"gory":11598,"gently":11599,"gurg":11600,"horm":11601,"hatch":11602,"homet":11603,"igu":11604,"jan":11605,"jig":11606,"ke":11607,"kin":11608,"kings":11609,"lith":11610,"luc":11611,"mea":11612,"mouse":11613,"nip":11614,"nyl":11615,"nerves":11616,"ple":11617,"pins":11618,"pigs":11619,"rou":11620,"rin":11621,"ric":11622,"rose":11623,"rye":11624,"rising":11625,"rises":11626,"ronald":11627,"sor":11628,"sar":11629,"sings":11630,"sided":11631,"ted":11632,"tid":11633,"touts":11634,"trench":11635,"ul":11636,"vest":11637,"vicar":11638,"wis":11639,"wider":11640,"yog":11641,"yarn":11642,"zip":11643,"##ointing":11644,"##nie":11645,"##away":11646,"##rated":11647,"##raul":11648,"##iven":11649,"##iable":11650,"##uke":11651,"##lon":11652,"##liness":11653,"##kn":11654,"##kill":11655,"##kirts":11656,"##daughter":11657,"##cle":11658,"##cury":11659,"##cakes":11660,"##haven":11661,"##gic":11662,"##gal":11663,"##gone":11664,"##mat":11665,"##mit":11666,"##mia":11667,"##OTS":11668,"##UG":11669,"##BOOK":11670,"##bi":11671,"##bred":11672,"##bru":11673,"##yards":11674,"##zing":11675,"##zes":11676,"##ELL":11677,"##GED":11678,"##GARD":11679,"##vity":11680,"##REN":11681,"##LMA":11682,"##KE":11683,"thee":11684,"##inas":11685,"##atile":11686,"##atisf":11687,"##erals":11688,"##ercise":11689,"##inging":11690,"##rep":11691,"##esar":11692,"##esome":11693,"han":11694,"hamp":11695,"haunt":11696,"##orious":11697,"inse":11698,"ingest":11699,"##vember":11700,"##onite":11701,"##onial":11702,"##stead":11703,"##stated":11704,"##struct":11705,"whi":11706,"##utors":11707,"##oted":11708,"##edral":11709,"##anation":11710,"##anity":11711,"##aru":11712,"##ario":11713,"##leum":11714,"goss":11715,"##kees":11716,"##keys":11717,"sock":11718,"soaps":11719,"##idance":11720,"##icop":11721,"##icare":11722,"lips":11723,"liability":11724,"stead":11725,"stem":11726,"stoned":11727,"static":11728,"stakes":11729,"stagger":11730,"##chil":11731,"##chief":11732,"forfe":11733,"ants":11734,"##alities":11735,"##alians":11736,"##inkles":11737,"abort":11738,"hem":11739,"hectic":11740,"##urable":11741,"##ithm":11742,"##acola":11743,"noted":11744,"notion":11745,"noticing":11746,"shamp":11747,"shaf":11748,"shipping":11749,"shifting":11750,"erra":11751,"##irst":11752,"##irth":11753,"cam":11754,"##rose":11755,"##roved":11756,"##roleum":11757,"rew":11758,"reel":11759,"reus":11760,"rebell":11761,"upside":11762,"upgrad":11763,"mover":11764,"aspir":11765,"november":11766,"##oos":11767,"worm":11768,"chill":11769,"chunks":11770,"alw":11771,"alarms":11772,"malls":11773,"mama":11774,"##essori":11775,"cant":11776,"canada":11777,"##ams":11778,"##aman":11779,"##amar":11780,"##amas":11781,"pecan":11782,"trough":11783,"meanwhile":11784,"meg":11785,"mega":11786,"workhouse":11787,"mug":11788,"muck":11789,"mums":11790,"shelf":11791,"##abul":11792,"exac":11793,"exterior":11794,"plead":11795,"plots":11796,"##andel":11797,"guidance":11798,"##igious":11799,"##ady":11800,"##adians":11801,"arter":11802,"##iega":11803,"prev":11804,"preced":11805,"aged":11806,"buss":11807,"wayside":11808,"##ssil":11809,"##ores":11810,"enh":11811,"envious":11812,"enquir":11813,"enchil":11814,"guessing":11815,"overly":11816,"offsh":11817,"##otherap":11818,"acts":11819,"acted":11820,"putt":11821,"putten":11822,"sorting":11823,"##hmere":11824,"cargo":11825,"##ante":11826,"los":11827,"compass":11828,"compost":11829,"compiler":11830,"compuls":11831,"compreh":11832,"brut":11833,"broth":11834,"##ishi":11835,"##beat":11836,"preapp":11837,"spun":11838,"handful":11839,"amen":11840,"rosters":11841,"payoff":11842,"##inton":11843,"unne":11844,"##shed":11845,"hike":11846,"fours":11847,"afterward":11848,"dreams":11849,"happier":11850,"foal":11851,"foggy":11852,"fossil":11853,"crick":11854,"cranes":11855,"grub":11856,"greasy":11857,"caretaker":11858,"recon":11859,"harray":11860,"##assynt":11861,"##atherine":11862,"teasp":11863,"traps":11864,"##gets":11865,"leasing":11866,"teller":11867,"##easing":11868,"slim":11869,"slack":11870,"slave":11871,"slices":11872,"sliced":11873,"slots":11874,"funerals":11875,"blur":11876,"##apore":11877,"smile":11878,"fae":11879,"fax":11880,"curtain":11881,"fluct":11882,"scor":11883,"scan":11884,"scouting":11885,"##quet":11886,"##sby":11887,"markings":11888,"disregard":11889,"resid":11890,"reserv":11891,"rescue":11892,"leery":11893,"miners":11894,"minus":11895,"terrain":11896,"cater":11897,"catap":11898,"watered":11899,"incidents":11900,"youngster":11901,"##pected":11902,"insides":11903,"insured":11904,"phon":11905,"elements":11906,"booking":11907,"booklet":11908,"Children":11909,"picky":11910,"pickets":11911,"raid":11912,"consists":11913,"fuss":11914,"instill":11915,"instant":11916,"attemp":11917,"swo":11918,"swore":11919,"polio":11920,"extre":11921,"subway":11922,"##manship":11923,"morris":11924,"paraff":11925,"parale":11926,"parade":11927,"paraly":11928,"headaches":11929,"accuse":11930,"accredit":11931,"statehood":11932,"awesome":11933,"barley":11934,"fairy":11935,"educating":11936,"##ubishi":11937,"standby":11938,"governors":11939,"obno":11940,"glo":11941,"gloss":11942,"priest":11943,"involving":11944,"drawers":11945,"drawings":11946,"Star":11947,"Steel":11948,"Stones":11949,"absurd":11950,"firewood":11951,"craz":11952,"gradual":11953,"##rican":11954,"##INK":11955,"imaginary":11956,"wrongly":11957,"roadside":11958,"banning":11959,"##pread":11960,"medi":11961,"medications":11962,"propag":11963,"computerized":11964,"corps":11965,"correl":11966,"##atively":11967,"tiles":11968,"difficulties":11969,"##terson":11970,"communist":11971,"ridden":11972,"singers":11973,"shortage":11974,"discret":11975,"questioned":11976,"blackberries":11977,"blacklist":11978,"worthy":11979,"assets":11980,"populated":11981,"viewing":11982,"societies":11983,"extras":11984,"motion":11985,"typist":11986,"##ships":11987,"colchester":11988,"colonial":11989,"recordings":11990,"polluting":11991,"bothering":11992,"##alem":11993,"requiring":11994,"examine":11995,"colder":11996,"signatures":11997,"charity":11998,"behaving":11999,"breakdown":12000,"patent":12001,"wallet":12002,"professions":12003,"##ANE":12004,"technique":12005,"beautifully":12006,"THELMA":12007,"##ologically":12008,"##ologists":12009,"developments":12010,"module":12011,"weighting":12012,"provides":12013,"potentially":12014,"constitu":12015,"packs":12016,"packet":12017,"artists":12018,"comfortably":12019,"turtles":12020,"delicate":12021,"accountable":12022,"drywall":12023,"pushes":12024,"confection":12025,"Suz":12026,"sweats":12027,"petty":12028,"petroleum":12029,"explo":12030,"explanation":12031,"snowed":12032,"doub":12033,"availability":12034,"safest":12035,"damages":12036,"valleys":12037,"suspend":12038,"detr":12039,"depended":12040,"##box":12041,"##boards":12042,"railroad":12043,"applic":12044,"norfolk":12045,"stockings":12046,"cops":12047,"##ATED":12048,"slowed":12049,"balancing":12050,"recip":12051,"touchy":12052,"##OMET":12053,"presentations":12054,"boarding":12055,"colorful":12056,"carting":12057,"##ISH":12058,"printers":12059,"Clau":12060,"Southwest":12061,"beaten":12062,"blocked":12063,"locking":12064,"competit":12065,"calories":12066,"convenor":12067,"attraction":12068,"satisfy":12069,"influenced":12070,"daft":12071,"starters":12072,"divisions":12073,"pitcher":12074,"memos":12075,"commercialized":12076,"summons":12077,"explained":12078,"richmond":12079,"appreh":12080,"independently":12081,"hooks":12082,"##OSS":12083,"gaining":12084,"technicality":12085,"apathy":12086,"paths":12087,"candle":12088,"performed":12089,"performances":12090,"Coast":12091,"cement":12092,"associations":12093,"pinny":12094,"pinmill":12095,"pineapp":12096,"Iraqi":12097,"Iraqis":12098,"shocking":12099,"broader":12100,"sensitive":12101,"repeating":12102,"destruct":12103,"shrubs":12104,"alcoholic":12105,"latin":12106,"latter":12107,"exercised":12108,"challenged":12109,"Louisville":12110,"skinny":12111,"deducted":12112,"establishment":12113,"Twenty":12114,"rotate":12115,"crucial":12116,"bombing":12117,"racec":12118,"seniority":12119,"representatives":12120,"consciousness":12121,"suburban":12122,"pads":12123,"contained":12124,"demanded":12125,"lifted":12126,"suspicious":12127,"Commod":12128,"Comput":12129,"Caddo":12130,"##roof":12131,"resolutions":12132,"swinging":12133,"carpeting":12134,"nationally":12135,"missionaries":12136,"racquet":12137,"maths":12138,"mathem":12139,"##AMS":12140,"bumper":12141,"sympathy":12142,"symphony":12143,"destroys":12144,"destroying":12145,"Spaniel":12146,"romance":12147,"identified":12148,"crawling":12149,"birthdays":12150,"manufacturer":12151,"manufacturers":12152,"thinner":12153,"midwives":12154,"concentrating":12155,"duplex":12156,"##ACTION":12157,"decks":12158,"Caesar":12159,"Trinity":12160,"naive":12161,"pockets":12162,"Panaman":12163,"merchandise":12164,"casser":12165,"cycling":12166,"##URY":12167,"preparation":12168,"publish":12169,"publishing":12170,"decoration":12171,"musicals":12172,"constructed":12173,"Syria":12174,"gathering":12175,"philosophical":12176,"trigger":12177,"acquainted":12178,"refrigerators":12179,"supervisors":12180,"Kuwaiti":12181,"Patterson":12182,"canceled":12183,"lochassynt":12184,"stretching":12185,"accommodate":12186,"kilogra":12187,"academy":12188,"escal":12189,"desserts":12190,"laser":12191,"mirrors":12192,"ministers":12193,"indoors":12194,"distributed":12195,"reminded":12196,"McDonalds":12197,"signalmen":12198,"Harrison":12199,"Noriega":12200,"oxides":12201,"oxford":12202,"pursuing":12203,"royalty":12204,"vocabul":12205,"hauling":12206,"selby":12207,"outskirts":12208,"disposal":12209,"disposable":12210,"Perkins":12211,"bonds":12212,"converters":12213,"brushes":12214,"hydro":12215,"hydraul":12216,"Butler":12217,"##TRATED":12218,"##TRACTION":12219,"stringent":12220,"MISS":12221,"MISER":12222,"MISTER":12223,"links":12224,"interpre":12225,"drilling":12226,"bankruptcy":12227,"Beat":12228,"Orioles":12229,"toilets":12230,"captured":12231,"carbure":12232,"talented":12233,"declared":12234,"fertilizer":12235,"##leston":12236,"sucker":12237,"prohibition":12238,"cooperative":12239,"REGARD":12240,"praying":12241,"minerals":12242,"passengers":12243,"documentary":12244,"consequence":12245,"congreg":12246,"robert":12247,"veteran":12248,"spiritual":12249,"Doors":12250,"Doctor":12251,"bodied":12252,"groove":12253,"nails":12254,"theatre":12255,"incorrect":12256,"photographers":12257,"Julie":12258,"Julia":12259,"fisherman":12260,"poured":12261,"sanctions":12262,"swayed":12263,"airplanes":12264,"discouraged":12265,"promotion":12266,"Howard":12267,"Landry":12268,"Barbara":12269,"Medicare":12270,"REPORT":12271,"SPORTS":12272,"wrecked":12273,"stimulation":12274,"pronounce":12275,"remodeling":12276,"criticize":12277,"ducks":12278,"##gypt":12279,"rewarding":12280,"##riends":12281,"quilts":12282,"delegates":12283,"composition":12284,"interrupted":12285,"scheduling":12286,"nonexempt":12287,"Brooklyn":12288,"ATTRACTION":12289,"Department":12290,"sofa":12291,"dismissed":12292,"AMERICA":12293,"AMERICAN":12294,"Frederick":12295,"GHOST":12296,"Humane":12297,"Madonna":12298,"Mountains":12299,"Yankees":12300,"bacon":12301,"therapist":12302,"hacker":12303,"enemy":12304,"intentionally":12305,"accepting":12306,"exploring":12307,"subdivision":12308,"parlour":12309,"disgusting":12310,"Hewlett":12311,"Queen":12312,"cushion":12313,"outfit":12314,"terrorism":12315,"tuppence":12316,"symptoms":12317,"Milwau":12318,"Research":12319,"pansies":12320,"samples":12321,"wrapped":12322,"stallion":12323,"neutered":12324,"recruiting":12325,"monetary":12326,"smithy":12327,"waterhole":12328,"incompet":12329,"efficiency":12330,"deteriorated":12331,"travellers":12332,"hazardous":12333,"Subaru":12334,"injustice":12335,"poodle":12336,"minivan":12337,"physiotherap":12338,"sausage":12339,"cabinets":12340,"kneecaps":12341,"exclamations":12342,"renewed":12343,"apron":12344,"hidden":12345,"cloudy":12346,"clippings":12347,"unexpected":12348,"indirectly":12349,"descendants":12350,"forewoman":12351,"transformer":12352,"Corvette":12353,"hyacinths":12354,"meatballs":12355,"Brazil":12356,"thunderstorms":12357,"Interstate":12358,"Celtics":12359,"Dahl":12360,"FIELD":12361,"Idaho":12362,"Jordan":12363,"MACNEIL":12364,"Wyoming":12365,"nickn":12366,"octave":12367,"rushmere":12368,"vague":12369,"harassment":12370,"withdraw":12371,"sulphur":12372,"commutators":12373,"skirting":12374,"soliciting":12375,"unload":12376,"Patriots":12377,"reimbursed":12378,"Nicaragua":12379,"ILLUSTRATED":12380,"Foster":12381,"FAMILY":12382,"HENRY":12383,"JAGGED":12384,"Linda":12385,"LOUISE":12386,"Mitsubishi":12387,"Owens":12388,"Pensacola":12389,"Radio":12390,"Siamese":12391,"Santa":12392,"Sperry":12393,"Testament":12394,"VISA":12395,"cathedral":12396,"festival":12397,"gurgling":12398,"hometown":12399,"iguana":12400,"lithium":12401,"rinse":12402,"richer":12403,"yogurt":12404,"##iveness":12405,"##brush":12406,"gossip":12407,"shafting":12408,"preapproved":12409,"unnecess":12410,"paraffin":12411,"obnoxious":12412,"discretion":12413,"##OMETHING":12414,"Commodore":12415,"vocabulary":12416,"Milwaukee":12417,"physiotherapy":12418,",?":12419,"AB":12420,"Ang":12421,"Ba":12422,"Bea":12423,"Bri":12424,"Boe":12425,"BEA":12426,"BOB":12427,"Cos":12428,"Cap":12429,"Cities":12430,"Circ":12431,"Cape":12432,"COP":12433,"CARD":12434,"Cinc":12435,"COD":12436,"Dent":12437,"Dian":12438,"Donna":12439,"DRE":12440,"DON":12441,"Donald":12442,"Dutch":12443,"Dustin":12444,"Dede":12445,"EV":12446,"Ell":12447,"Ele":12448,"EIGHT":12449,"FAT":12450,"FIS":12451,"FIVE":12452,"Gu":12453,"GE":12454,"Gary":12455,"GIR":12456,"GARD":12457,"GUN":12458,"Hal":12459,"Home":12460,"Him":12461,"Hol":12462,"Hos":12463,"Hunt":12464,"Hoff":12465,"HOUR":12466,"Jo":12467,"Jac":12468,"Jones":12469,"Kay":12470,"Kau":12471,"Kill":12472,"KING":12473,"Kno":12474,"Kathy":12475,"Karen":12476,"Kelly":12477,"Les":12478,"Lisa":12479,"Liber":12480,"Lege":12481,"LAND":12482,"Lynn":12483,"Mat":12484,"Moo":12485,"Mall":12486,"Mitch":12487,"Nat":12488,"Nev":12489,"NINE":12490,"Nintend":12491,"Oaks":12492,"Olymp":12493,"PAR":12494,"PART":12495,"Rand":12496,"Rub":12497,"Roose":12498,"Reds":12499,"Sing":12500,"Sed":12501,"Sean":12502,"Sand":12503,"Sure":12504,"Serv":12505,"Seah":12506,"To":12507,"TI":12508,"Tre":12509,"Ted":12510,"Tim":12511,"Tro":12512,"Tri":12513,"TER":12514,"Tina":12515,"Taco":12516,"TRA":12517,"Vern":12518,"Wild":12519,"Wave":12520,"Wend":12521,"WAR":12522,"Western":12523,"WAS":12524,"Xero":12525,"az":12526,"apex":12527,"bean":12528,"beam":12529,"bats":12530,"cine":12531,"cul":12532,"dat":12533,"der":12534,"ding":12535,"dive":12536,"dated":12537,"dave":12538,"dash":12539,"dwell":12540,"dwind":12541,"dandel":12542,"fills":12543,"faint":12544,"gau":12545,"gill":12546,"hats":12547,"ivy":12548,"jot":12549,"jealous":12550,"mound":12551,"mice":12552,"misc":12553,"merry":12554,"nomin":12555,"niece":12556,"nieces":12557,"oar":12558,"oint":12559,"pion":12560,"pas":12561,"pals":12562,"piling":12563,"piles":12564,"pascal":12565,"rit":12566,"rag":12567,"sab":12568,"uu":12569,"ves":12570,"vix":12571,"woo":12572,"wig":12573,"wrench":12574,"zuc":12575,"##oice":12576,"##oks":12577,"##olyn":12578,"##aper":12579,"##afe":12580,"##set":12581,"##tor":12582,"##ement":12583,"##ender":12584,"##eged":12585,"##rat":12586,"##rough":12587,"##rug":12588,"##rons":12589,"##ius":12590,"##unds":12591,"##uki":12592,"##kids":12593,"##dor":12594,"##dad":12595,"##cers":12596,"##cents":12597,"##cron":12598,"##cuss":12599,"##cake":12600,"##hed":12601,"##hol":12602,"##hire":12603,"##gate":12604,"##gings":12605,"##post":12606,"##piece":12607,"##proof":12608,"##win":12609,"##wear":12610,"##washed":12611,"##mist":12612,"##matic":12613,"##ULL":12614,"##bble":12615,"##bye":12616,"##borough":12617,"##ya":12618,"##yd":12619,"##zers":12620,"##MIN":12621,"##EEN":12622,"##CALL":12623,"##IAN":12624,"##IRE":12625,"##NY":12626,"##NIE":12627,"##RON":12628,"##AB":12629,"##ABLE":12630,"##KING":12631,"thie":12632,"thicken":12633,"##iny":12634,"##inarian":12635,"##innat":12636,"##ativity":12637,"toning":12638,"##eno":12639,"inh":12640,"inqu":12641,"inord":12642,"invers":12643,"##onable":12644,"##onents":12645,"whack":12646,"whel":12647,"##utter":12648,"##otive":12649,"##ito":12650,"##iters":12651,"##itol":12652,"##itures":12653,"doke":12654,"dope":12655,"dodge":12656,"bee":12657,"beets":12658,"begging":12659,"##etland":12660,"##aring":12661,"##arbons":12662,"goi":12663,"##icting":12664,"lily":12665,"ligam":12666,"rightly":12667,"stability":12668,"##isbury":12669,"##entine":12670,"##char":12671,"##chini":12672,"likeli":12673,"rearing":12674,"reactions":12675,"ano":12676,"analog":12677,"##ala":12678,"##alf":12679,"##alou":12680,"##acam":12681,"##acious":12682,"##acles":12683,"notwith":12684,"shou":12685,"shark":12686,"shetland":12687,"##oded":12688,"##oportion":12689,"withhold":12690,"##irable":12691,"caern":12692,"##rolled":12693,"reef":12694,"allocated":12695,"allocation":12696,"alleged":12697,"##ctr":12698,"##ram":12699,"##rament":12700,"fract":12701,"franch":12702,"chee":12703,"chick":12704,"chaps":12705,"chops":12706,"chilly":12707,"choral":12708,"chedd":12709,"chauff":12710,"almo":12711,"suite":12712,"suited":12713,"cane":12714,"cannot":12715,"##ases":12716,"##asher":12717,"##amped":12718,"peeve":12719,"tru":12720,"##herst":12721,"##owned":12722,"goodbye":12723,"tabs":12724,"muddy":12725,"##abeth":12726,"exit":12727,"plat":12728,"plated":12729,"plum":12730,"dif":12731,"diverse":12732,"guacam":12733,"##astrous":12734,"##igation":12735,"##eard":12736,"##earing":12737,"##ulative":12738,"##ript":12739,"whoops":12740,"arithm":12741,"coble":12742,"coating":12743,"coco":12744,"buzz":12745,"##itement":12746,"backl":12747,"quix":12748,"queer":12749,"clo":12750,"envision":12751,"envy":12752,"envelop":12753,"enlight":12754,"enamel":12755,"##ichord":12756,"manually":12757,"overr":12758,"overwor":12759,"overweight":12760,"intim":12761,"##iful":12762,"##cier":12763,"tex":12764,"pox":12765,"poin":12766,"posh":12767,"pails":12768,"pavil":12769,"doesnae":12770,"##ilding":12771,"brunch":12772,"prett":12773,"underwear":12774,"partial":12775,"prote":12776,"spit":12777,"spoon":12778,"sparrow":12779,"spayed":12780,"sponge":12781,"greens":12782,"herbs":12783,"interse":12784,"interference":12785,"interstate":12786,"##agraph":12787,"rox":12788,"unseas":12789,"unkn":12790,"sixes":12791,"sixteenth":12792,"##shine":12793,"##shell":12794,"##shaw":12795,"hires":12796,"hips":12797,"##eals":12798,"draught":12799,"##nings":12800,"perch":12801,"reader":12802,"hearings":12803,"crumb":12804,"crummy":12805,"monot":12806,"monster":12807,"##izabeth":12808,"harps":12809,"##ptical":12810,"##iston":12811,"##asses":12812,"##ips":12813,"adoles":12814,"adjo":12815,"beings":12816,"##getown":12817,"leased":12818,"elizabeth":12819,"ownership":12820,"highlight":12821,"slot":12822,"slick":12823,"slides":12824,"stranded":12825,"puzz":12826,"blouse":12827,"blades":12828,"blouses":12829,"##velt":12830,"tying":12831,"badger":12832,"##ext":12833,"flop":12834,"flaky":12835,"helicop":12836,"scub":12837,"scrib":12838,"script":12839,"##quo":12840,"marsh":12841,"margar":12842,"boiled":12843,"contour":12844,"context":12845,"unto":12846,"dispr":12847,"dispar":12848,"disastrous":12849,"rese":12850,"leith":12851,"leuke":12852,"##icult":12853,"mining":12854,"edg":12855,"edward":12856,"edging":12857,"buyer":12858,"##onsay":12859,"strangers":12860,"stronsay":12861,"decomp":12862,"watermel":12863,"incur":12864,"incap":12865,"##ictor":12866,"invari":12867,"matt":12868,"matric":12869,"##blical":12870,"taxing":12871,"drained":12872,"dragged":12873,"insulation":12874,"insanity":12875,"companions":12876,"phoned":12877,"pharay":12878,"bookkeeping":12879,"expressing":12880,"expansion":12881,"consol":12882,"fuzzy":12883,"generic":12884,"generous":12885,"generating":12886,"generator":12887,"giant":12888,"##udder":12889,"midwest":12890,"##aze":12891,"##azine":12892,"subtle":12893,"##ycl":12894,"##uctions":12895,"menial":12896,"hoi":12897,"walter":12898,"opens":12899,"##angle":12900,"parano":12901,"paragraph":12902,"headline":12903,"restore":12904,"southampton":12905,"movements":12906,"doggone":12907,"skid":12908,"barges":12909,"barrier":12910,"barrels":12911,"baroque":12912,"fairies":12913,"waiter":12914,"waiters":12915,"planets":12916,"planner":12917,"townhouse":12918,"misses":12919,"glance":12920,"priory":12921,"infer":12922,"infra":12923,"worldwide":12924,"designing":12925,"desirable":12926,"##lessly":12927,"majoring":12928,"cooks":12929,"pains":12930,"painter":12931,"painters":12932,"footage":12933,"Station":12934,"Stand":12935,"Stri":12936,"airlines":12937,"whitewashed":12938,"corners":12939,"presidents":12940,"grandkids":12941,"metroplex":12942,"mainstream":12943,"graded":12944,"graders":12945,"##ricting":12946,"considerable":12947,"moments":12948,"slightest":12949,"winch":12950,"News":12951,"corp":12952,"sprays":12953,"##inson":12954,"felonies":12955,"clockwise":12956,"lighting":12957,"choke":12958,"excused":12959,"excitement":12960,"milling":12961,"hopping":12962,"wooded":12963,"distract":12964,"distinct":12965,"circuits":12966,"lucked":12967,"grouped":12968,"advised":12969,"advances":12970,"budgeted":12971,"visible":12972,"solved":12973,"assigned":12974,"nationalities":12975,"penet":12976,"remed":12977,"remar":12978,"necessities":12979,"autumn":12980,"pops":12981,"transform":12982,"motive":12983,"magist":12984,"equipped":12985,"column":12986,"informative":12987,"amazes":12988,"rude":12989,"THING":12990,"requested":12991,"charlie":12992,"stepdaughter":12993,"continually":12994,"toughest":12995,"patches":12996,"patrol":12997,"##grim":12998,"begins":12999,"joins":13000,"redid":13001,"fancier":13002,"valve":13003,"cott":13004,"strikers":13005,"##stems":13006,"staffed":13007,"##ifications":13008,"labs":13009,"##awks":13010,"Engine":13011,"evol":13012,"providers":13013,"exceeding":13014,"refined":13015,"Thousand":13016,"They":13017,"ordering":13018,"demol":13019,"supermarket":13020,"pluses":13021,"balloon":13022,"automotive":13023,"squeeze":13024,"billi":13025,"Arnold":13026,"turf":13027,"turtle":13028,"delay":13029,"fitter":13030,"Mexicans":13031,"deput":13032,"mailed":13033,"confusing":13034,"##ipper":13035,"Carolyn":13036,"doubling":13037,"honour":13038,"upsets":13039,"animated":13040,"physicians":13041,"cooling":13042,"opposition":13043,"laun":13044,"##avate":13045,"incline":13046,"futur":13047,"ticks":13048,"##boats":13049,"closing":13050,"closets":13051,"##apping":13052,"applies":13053,"stocked":13054,"wheeling":13055,"wheelch":13056,"##person":13057,"##ATOR":13058,"councils":13059,"buffer":13060,"widely":13061,"encount":13062,"wireless":13063,"verses":13064,"versed":13065,"chemists":13066,"conditioned":13067,"##forms":13068,"voluntarily":13069,"styling":13070,"odds":13071,"oddly":13072,"eyecron":13073,"humane":13074,"sunshine":13075,"sharks":13076,"combines":13077,"spoil":13078,"spoilt":13079,"Shelt":13080,"Sharon":13081,"successfully":13082,"##lectric":13083,"participation":13084,"invested":13085,"darker":13086,"literary":13087,"arrive":13088,"lodgings":13089,"deeply":13090,"contributes":13091,"halls":13092,"hallway":13093,"locker":13094,"horrif":13095,"soul":13096,"competitions":13097,"portable":13098,"portions":13099,"prompt":13100,"attracted":13101,"starved":13102,"inspected":13103,"troop":13104,"devote":13105,"irons":13106,"##NDRED":13107,"summary":13108,"capacity":13109,"Inner":13110,"paneling":13111,"pancakes":13112,"risking":13113,"risks":13114,"characteristics":13115,"##OSTS":13116,"Georgetown":13117,"splitting":13118,"splash":13119,"liberty":13120,"steamed":13121,"pathetic":13122,"reveal":13123,"disappoint":13124,"objection":13125,"framing":13126,"mischief":13127,"licensed":13128,"volunteers":13129,"volunteering":13130,"firmly":13131,"crooks":13132,"towed":13133,"connections":13134,"salads":13135,"furnace":13136,"Fords":13137,"Hondur":13138,"hillside":13139,"rubbed":13140,"rubbing":13141,"##aults":13142,"scramble":13143,"designs":13144,"sweatsh":13145,"immigrants":13146,"pigeon":13147,"##world":13148,"deduction":13149,"Twin":13150,"essence":13151,"rotter":13152,"rotted":13153,"critters":13154,"commentaries":13155,"##ADLINE":13156,"robbins":13157,"struggled":13158,"matching":13159,"demands":13160,"logistics":13161,"instruction":13162,"instructors":13163,"temperament":13164,"Why":13165,"Wheel":13166,"Mastercard":13167,"Walker":13168,"cuis":13169,"detector":13170,"nationwide":13171,"luxuries":13172,"tunnel":13173,"##woods":13174,"annoyance":13175,"Disneyland":13176,"Disneyworld":13177,"blend":13178,"riot":13179,"riots":13180,"grabbed":13181,"Rolling":13182,"ethical":13183,"strenuous":13184,"existing":13185,"victimized":13186,"attendance":13187,"institutional":13188,"Collin":13189,"ultra":13190,"thermal":13191,"taller":13192,"saltwater":13193,"Cajun":13194,"Trump":13195,"mowed":13196,"regulations":13197,"revolved":13198,"Barry":13199,"ambivalent":13200,"ambitious":13201,"rhyth":13202,"tasted":13203,"slips":13204,"methodist":13205,"Grandma":13206,"Braves":13207,"INN":13208,"cycles":13209,"terrified":13210,"freezes":13211,"increasingly":13212,"Mercury":13213,"jazzercise":13214,"accordion":13215,"excluded":13216,"Systems":13217,"premise":13218,"translations":13219,"weaponry":13220,"sailboat":13221,"expanded":13222,"##rogen":13223,"##rogate":13224,"museums":13225,"losses":13226,"obliged":13227,"obligated":13228,"obligations":13229,"astound":13230,"ribs":13231,"altering":13232,"alterations":13233,"stretched":13234,"uncommon":13235,"dunoon":13236,"johnny":13237,"miracle":13238,"searchlight":13239,"##AGE":13240,"indoctr":13241,"distributing":13242,"remains":13243,"hatred":13244,"crocheting":13245,"crocheted":13246,"bombarded":13247,"Amherst":13248,"booze":13249,"ledger":13250,"nikra":13251,"pursued":13252,"tackled":13253,"vocal":13254,"scarborough":13255,"solicitor":13256,"solicitations":13257,"scrubbed":13258,"Highway":13259,"Peru":13260,"##RAH":13261,"##RAPH":13262,"shunter":13263,"unreas":13264,"defending":13265,"consultation":13266,"fleet":13267,"observe":13268,"Duke":13269,"isolation":13270,"isolate":13271,"albert":13272,"prosecuting":13273,"sacrificed":13274,"Iranian":13275,"Maverick":13276,"evacuated":13277,"chemistry":13278,"fertilize":13279,"foolish":13280,"rusty":13281,"##oxide":13282,"prohibitive":13283,"installation":13284,"hammered":13285,"renov":13286,"##attan":13287,"assembled":13288,"granddaughter":13289,"Durham":13290,"veterans":13291,"updated":13292,"folded":13293,"crotchet":13294,"crushers":13295,"calculate":13296,"HEADLINE":13297,"Montessori":13298,"Spain":13299,"cubs":13300,"reinforce":13301,"quotas":13302,"homemaker":13303,"dissatisf":13304,"disabilities":13305,"elephant":13306,"tenths":13307,"overwhelmed":13308,"weakness":13309,"ankles":13310,"expenditures":13311,"undertakings":13312,"tablespoons":13313,"exhibition":13314,"Tele":13315,"cordless":13316,"warranties":13317,"EXT":13318,"Metroplex":13319,"jutting":13320,"inevitable":13321,"mushroom":13322,"mushrooms":13323,"intending":13324,"threads":13325,"privileges":13326,"subsidize":13327,"extensively":13328,"predominantly":13329,"Oldsmobiles":13330,"neglected":13331,"DEF":13332,"Flags":13333,"Intern":13334,"Rocky":13335,"Simon":13336,"leverage":13337,"inherited":13338,"wandering":13339,"liberties":13340,"intentions":13341,"introvert":13342,"greedy":13343,"favour":13344,"extraordinarily":13345,"nonexistent":13346,"devastating":13347,"intellectually":13348,"Brookhaven":13349,"adequately":13350,"Greenville":13351,"RAIN":13352,"ouch":13353,"whistle":13354,"orthod":13355,"monitored":13356,"subtit":13357,"simplest":13358,"neighbours":13359,"councillor":13360,"sandwiches":13361,"GHOSTS":13362,"Madison":13363,"Poland":13364,"Yankee":13365,"ceram":13366,"juggling":13367,"ruler":13368,"ruled":13369,"therapy":13370,"enemies":13371,"acceler":13372,"trailers":13373,"incinerator":13374,"affectionate":13375,"receipts":13376,"nephews":13377,"COMM":13378,"COMP":13379,"UNIX":13380,"elbow":13381,"elbows":13382,"prospects":13383,"lobbyists":13384,"Glen":13385,"Kindercare":13386,"cowboys":13387,"rugby":13388,"skeptical":13389,"##lockwise":13390,"##arfon":13391,"soaking":13392,"stainless":13393,"tribe":13394,"sirens":13395,"dreadful":13396,"adamant":13397,"scallops":13398,"pheasants":13399,"Bradshaw":13400,"stereotype":13401,"enthusiastic":13402,"Ferrari":13403,"WIND":13404,"lungs":13405,"nanny":13406,"nonsense":13407,"##occup":13408,"##OGRAPH":13409,"stabilizer":13410,"rebel":13411,"diversity":13412,"guinea":13413,"clinic":13414,"amateur":13415,"appetite":13416,"parameters":13417,"corridor":13418,"multipl":13419,"reimbursement":13420,"episode":13421,"Lebanon":13422,"Governor":13423,"HUNDRED":13424,"KNOTS":13425,"Palestin":13426,"Southern":13427,"Sierra":13428,"biscuits":13429,"dereg":13430,"fiddle":13431,"george":13432,"jerk":13433,"sequel":13434,"alleviate":13435,"municip":13436,"ploughing":13437,"kidnapping":13438,"affluent":13439,"transplant":13440,"certificate":13441,"betnovate":13442,"Broncos":13443,"Castro":13444,"Domino":13445,"Ninety":13446,"YEARS":13447,"pacif":13448,"pods":13449,"virus":13450,"waybill":13451,"indifferent":13452,"restraint":13453,"Stallone":13454,"refuge":13455,"anticlockwise":13456,"inflammation":13457,"nonfiction":13458,"fantasy":13459,"earthquake":13460,"CHILDREN":13461,"peebleshire":13462,"raspberry":13463,"SLICKERS":13464,"Bahamas":13465,"Cougar":13466,"Lawry":13467,"OPRAH":13468,"Oregon":13469,"Opera":13470,"Oahu":13471,"Packard":13472,"lucy":13473,"ronaldsay":13474,"wisdom":13475,"forfeit":13476,"reusable":13477,"upgraded":13478,"cantalou":13479,"prevail":13480,"enquiry":13481,"enchiladas":13482,"offshore":13483,"brutal":13484,"amenities":13485,"cricket":13486,"paralegal":13487,"propaganda":13488,"confectionery":13489,"Suzuki":13490,"pineapple":13491,"Computer":13492,"racquetball":13493,"Beatles":13494,"REGARDING":13495,"Dahlmer":13496,"nickname":13497,"discretionary":13498,",?\"":13499,"ABOUT":13500,"Boeing":13501,"Circuit":13502,"Cincinnat":13503,"CODA":13504,"Denton":13505,"Diane":13506,"DREAMS":13507,"Eleven":13508,"FATAL":13509,"GEOGRAPH":13510,"GIRL":13511,"Holiday":13512,"Hoffman":13513,"Joey":13514,"Kauai":13515,"Killeen":13516,"Knox":13517,"Leslie":13518,"Liberty":13519,"Legend":13520,"LANDING":13521,"Moore":13522,"Nevada":13523,"Nintendo":13524,"Roosevelt":13525,"Singapore":13526,"Seahawks":13527,"Troy":13528,"TERMIN":13529,"Vernon":13530,"Wendy":13531,"Xerox":13532,"ointment":13533,"vixen":13534,"zucchini":13535,"likelihood":13536,"analogy":13537,"notwithstanding":13538,"caernarfon":13539,"cheddar":13540,"chauffeur":13541,"guacamole":13542,"arithmetic":13543,"cocoa":13544,"overworked":13545,"unknown":13546,"crumbs":13547,"harpsichord":13548,"adolescents":13549,"scuba":13550,"disproportion":13551,"disparity":13552,"leukemia":13553,"watermelon":13554,"invariably":13555,"Sheltie":13556,"nikram":13557,"Cincinnati":13558,"GEOGRAPHIC":13559,"TERMINATOR":13560,"AN":13561,"Av":13562,"AR":13563,"Ass":13564,"Alt":13565,"Book":13566,"Bye":13567,"Bend":13568,"BAT":13569,"Bapt":13570,"Belt":13571,"Bachelor":13572,"BACK":13573,"BETTER":13574,"Cy":13575,"CR":13576,"Cind":13577,"Cher":13578,"Cry":13579,"Cel":13580,"Cross":13581,"Cru":13582,"Coc":13583,"Cash":13584,"CAT":13585,"COUR":13586,"Caval":13587,"Clyde":13588,"Da":13589,"Don":13590,"Dal":13591,"Dam":13592,"Dave":13593,"DIG":13594,"DAD":13595,"DOC":13596,"EY":13597,"EIGH":13598,"Ellen":13599,"Erie":13600,"FL":13601,"Fin":13602,"Fra":13603,"Fond":13604,"FRE":13605,"First":13606,"FIRE":13607,"GONE":13608,"Germans":13609,"Hers":13610,"Hard":13611,"Hall":13612,"Hend":13613,"Hills":13614,"HIS":13615,"HOS":13616,"HUN":13617,"Hallow":13618,"Just":13619,"JON":13620,"Jazz":13621,"Kmart":13622,"Luc":13623,"LES":13624,"Mic":13625,"Mos":13626,"Mans":13627,"Mars":13628,"Minist":13629,"MAS":13630,"MOT":13631,"Nu":13632,"NO":13633,"Neal":13634,"Nels":13635,"NAK":13636,"Og":13637,"Om":13638,"OR":13639,"Ont":13640,"Pay":13641,"Pors":13642,"Pier":13643,"Prel":13644,"POST":13645,"Ray":13646,"Rick":13647,"Rog":13648,"Ridge":13649,"RES":13650,"Rec":13651,"Reg":13652,"Sn":13653,"SO":13654,"Ser":13655,"Sac":13656,"Sag":13657,"Squ":13658,"Spa":13659,"Show":13660,"Syl":13661,"Smo":13662,"SOMETHING":13663,"Ta":13664,"Tay":13665,"Tia":13666,"Time":13667,"Temp":13668,"Tai":13669,"Tuls":13670,"Ukra":13671,"Vill":13672,"Viv":13673,"Win":13674,"Wally":13675,"WARS":13676,"Yes":13677,"ZONE":13678,"ack":13679,"aqu":13680,"aids":13681,"aquarium":13682,"bou":13683,"bun":13684,"bore":13685,"bish":13686,"bids":13687,"bung":13688,"bounced":13689,"bermuda":13690,"cen":13691,"cured":13692,"dor":13693,"dro":13694,"dime":13695,"dates":13696,"duct":13697,"dys":13698,"dung":13699,"eels":13700,"ego":13701,"eager":13702,"fate":13703,"fives":13704,"faded":13705,"gest":13706,"giv":13707,"groom":13708,"hith":13709,"hort":13710,"hob":13711,"hint":13712,"huts":13713,"hints":13714,"hedge":13715,"ireland":13716,"je":13717,"jet":13718,"jigs":13719,"kab":13720,"lou":13721,"lust":13722,"lee":13723,"lance":13724,"lung":13725,"lamb":13726,"lenses":13727,"nar":13728,"nest":13729,"nig":13730,"nought":13731,"nag":13732,"nav":13733,"naval":13734,"oo":13735,"om":13736,"ore":13737,"oats":13738,"oval":13739,"okra":13740,"pid":13741,"pent":13742,"pertain":13743,"pines":13744,"peaks":13745,"porter":13746,"pusher":13747,"rall":13748,"righ":13749,"rats":13750,"rays":13751,"ramp":13752,"rode":13753,"rival":13754,"rugs":13755,"rascal":13756,"ss":13757,"silt":13758,"sane":13759,"siding":13760,"ting":13761,"tas":13762,"tally":13763,"tile":13764,"tummy":13765,"vig":13766,"vax":13767,"wings":13768,"wits":13769,"westerly":13770,"winkles":13771,"yarm":13772,"zoo":13773,"##oed":13774,"##oke":13775,"##oven":13776,"##ovan":13777,"##nor":13778,"##nas":13779,"##nest":13780,"##nets":13781,"##sure":13782,"##tail":13783,"##tled":13784,"##rs":13785,"##rh":13786,"##rot":13787,"##rac":13788,"##racks":13789,"##reast":13790,"##ige":13791,"##uity":13792,"##ubl":13793,"##uating":13794,"##lain":13795,"##lower":13796,"##lining":13797,"##kil":13798,"##dated":13799,"##dles":13800,"##cre":13801,"##car":13802,"##cest":13803,"##cale":13804,"##coming":13805,"##class":13806,"##hh":13807,"##hart":13808,"##hattan":13809,"##gean":13810,"##gard":13811,"##gred":13812,"##gant":13813,"##pri":13814,"##poll":13815,"##ws":13816,"##wan":13817,"##mont":13818,"##OMBO":13819,"##TANT":13820,"##ST":13821,"##Skin":13822,"##bre":13823,"##bes":13824,"##bid":13825,"##bro":13826,"##bra":13827,"##bound":13828,"##birth":13829,"##yroid":13830,"##zi":13831,"##xap":13832,"##CT":13833,"##CH":13834,"##COR":13835,"##Int":13836,"##IAL":13837,"##va":13838,"##vard":13839,"##vish":13840,"##vile":13841,"##vance":13842,"##fu":13843,"##fra":13844,"##fun":13845,"##fork":13846,"##ficial":13847,"##front":13848,"##LLE":13849,"##AH":13850,"##AIN":13851,"##jer":13852,"##PIT":13853,"##JOR":13854,"thus":13855,"thyroid":13856,"thesis":13857,"##oup":13858,"##ouch":13859,"##ndy":13860,"##iners":13861,"##inite":13862,"##inating":13863,"##inately":13864,"##inction":13865,"##atched":13866,"##eaway":13867,"##easter":13868,"toast":13869,"thatch":13870,"italy":13871,"##owed":13872,"##owth":13873,"##eses":13874,"##esth":13875,"##esters":13876,"hams":13877,"haird":13878,"##orous":13879,"ine":13880,"ink":13881,"ingred":13882,"##onic":13883,"##onous":13884,"##onably":13885,"##onnect":13886,"##stem":13887,"##stock":13888,"##ghdad":13889,"##utical":13890,"##otest":13891,"##edar":13892,"##itary":13893,"##itarian":13894,"waking":13895,"wagg":13896,"doe":13897,"knack":13898,"kneel":13899,"bees":13900,"begg":13901,"begun":13902,"##etam":13903,"##anol":13904,"##anne":13905,"onset":13906,"##send":13907,"##arol":13908,"hull":13909,"gos":13910,"goin":13911,"##keley":13912,"##ldmore":13913,"##idges":13914,"lik":13915,"liz":13916,"isle":13917,"stamp":13918,"stero":13919,"storing":13920,"stutter":13921,"##isket":13922,"##entic":13923,"##entoft":13924,"forg":13925,"forbid":13926,"ancest":13927,"sewn":13928,"seated":13929,"segment":13930,"##alay":13931,"abou":13932,"abst":13933,"abusing":13934,"abreast":13935,"##thew":13936,"oral":13937,"ornam":13938,"hemp":13939,"hemel":13940,"hexap":13941,"##urally":13942,"##urance":13943,"##acular":13944,"noteb":13945,"##oute":13946,"shod":13947,"##odles":13948,"##opher":13949,"##opard":13950,"myth":13951,"arena":13952,"cape":13953,"caldmore":13954,"##rof":13955,"rend":13956,"rever":13957,"render":13958,"reuse":13959,"##auc":13960,"seeking":13961,"asph":13962,"nev":13963,"##rained":13964,"outdated":13965,"##inders":13966,"frug":13967,"friv":13968,"freak":13969,"##gel":13970,"chor":13971,"chef":13972,"chass":13973,"chased":13974,"charts":13975,"alt":13976,"albe":13977,"alph":13978,"mare":13979,"mast":13980,"maids":13981,"mashed":13982,"canvas":13983,"##illions":13984,"peo":13985,"proc":13986,"trib":13987,"tricks":13988,"tracing":13989,"trillions":13990,"twe":13991,"twang":13992,"##hertz":13993,"mend":13994,"tails":13995,"mugged":13996,"##inee":13997,"##abl":13998,"##aby":13999,"##unciation":14000,"##ppy":14001,"plag":14002,"plumber":14003,"dire":14004,"dioxide":14005,"howl":14006,"gull":14007,"guest":14008,"sav":14009,"sakes":14010,"sailed":14011,"probability":14012,"##igra":14013,
[...]
